<pad>	0
<unk>	0
<s>	0
</s>	0
<0x00>	0
<0x01>	0
<0x02>	0
<0x03>	0
<0x04>	0
<0x05>	0
<0x06>	0
<0x07>	0
<0x08>	0
<0x09>	0
<0x0A>	0
<0x0B>	0
<0x0C>	0
<0x0D>	0
<0x0E>	0
<0x0F>	0
<0x10>	0
<0x11>	0
<0x12>	0
<0x13>	0
<0x14>	0
<0x15>	0
<0x16>	0
<0x17>	0
<0x18>	0
<0x19>	0
<0x1A>	0
<0x1B>	0
<0x1C>	0
<0x1D>	0
<0x1E>	0
<0x1F>	0
<0x20>	0
<0x21>	0
<0x22>	0
<0x23>	0
<0x24>	0
<0x25>	0
<0x26>	0
<0x27>	0
<0x28>	0
<0x29>	0
<0x2A>	0
<0x2B>	0
<0x2C>	0
<0x2D>	0
<0x2E>	0
<0x2F>	0
<0x30>	0
<0x31>	0
<0x32>	0
<0x33>	0
<0x34>	0
<0x35>	0
<0x36>	0
<0x37>	0
<0x38>	0
<0x39>	0
<0x3A>	0
<0x3B>	0
<0x3C>	0
<0x3D>	0
<0x3E>	0
<0x3F>	0
<0x40>	0
<0x41>	0
<0x42>	0
<0x43>	0
<0x44>	0
<0x45>	0
<0x46>	0
<0x47>	0
<0x48>	0
<0x49>	0
<0x4A>	0
<0x4B>	0
<0x4C>	0
<0x4D>	0
<0x4E>	0
<0x4F>	0
<0x50>	0
<0x51>	0
<0x52>	0
<0x53>	0
<0x54>	0
<0x55>	0
<0x56>	0
<0x57>	0
<0x58>	0
<0x59>	0
<0x5A>	0
<0x5B>	0
<0x5C>	0
<0x5D>	0
<0x5E>	0
<0x5F>	0
<0x60>	0
<0x61>	0
<0x62>	0
<0x63>	0
<0x64>	0
<0x65>	0
<0x66>	0
<0x67>	0
<0x68>	0
<0x69>	0
<0x6A>	0
<0x6B>	0
<0x6C>	0
<0x6D>	0
<0x6E>	0
<0x6F>	0
<0x70>	0
<0x71>	0
<0x72>	0
<0x73>	0
<0x74>	0
<0x75>	0
<0x76>	0
<0x77>	0
<0x78>	0
<0x79>	0
<0x7A>	0
<0x7B>	0
<0x7C>	0
<0x7D>	0
<0x7E>	0
<0x7F>	0
<0x80>	0
<0x81>	0
<0x82>	0
<0x83>	0
<0x84>	0
<0x85>	0
<0x86>	0
<0x87>	0
<0x88>	0
<0x89>	0
<0x8A>	0
<0x8B>	0
<0x8C>	0
<0x8D>	0
<0x8E>	0
<0x8F>	0
<0x90>	0
<0x91>	0
<0x92>	0
<0x93>	0
<0x94>	0
<0x95>	0
<0x96>	0
<0x97>	0
<0x98>	0
<0x99>	0
<0x9A>	0
<0x9B>	0
<0x9C>	0
<0x9D>	0
<0x9E>	0
<0x9F>	0
<0xA0>	0
<0xA1>	0
<0xA2>	0
<0xA3>	0
<0xA4>	0
<0xA5>	0
<0xA6>	0
<0xA7>	0
<0xA8>	0
<0xA9>	0
<0xAA>	0
<0xAB>	0
<0xAC>	0
<0xAD>	0
<0xAE>	0
<0xAF>	0
<0xB0>	0
<0xB1>	0
<0xB2>	0
<0xB3>	0
<0xB4>	0
<0xB5>	0
<0xB6>	0
<0xB7>	0
<0xB8>	0
<0xB9>	0
<0xBA>	0
<0xBB>	0
<0xBC>	0
<0xBD>	0
<0xBE>	0
<0xBF>	0
<0xC0>	0
<0xC1>	0
<0xC2>	0
<0xC3>	0
<0xC4>	0
<0xC5>	0
<0xC6>	0
<0xC7>	0
<0xC8>	0
<0xC9>	0
<0xCA>	0
<0xCB>	0
<0xCC>	0
<0xCD>	0
<0xCE>	0
<0xCF>	0
<0xD0>	0
<0xD1>	0
<0xD2>	0
<0xD3>	0
<0xD4>	0
<0xD5>	0
<0xD6>	0
<0xD7>	0
<0xD8>	0
<0xD9>	0
<0xDA>	0
<0xDB>	0
<0xDC>	0
<0xDD>	0
<0xDE>	0
<0xDF>	0
<0xE0>	0
<0xE1>	0
<0xE2>	0
<0xE3>	0
<0xE4>	0
<0xE5>	0
<0xE6>	0
<0xE7>	0
<0xE8>	0
<0xE9>	0
<0xEA>	0
<0xEB>	0
<0xEC>	0
<0xED>	0
<0xEE>	0
<0xEF>	0
<0xF0>	0
<0xF1>	0
<0xF2>	0
<0xF3>	0
<0xF4>	0
<0xF5>	0
<0xF6>	0
<0xF7>	0
<0xF8>	0
<0xF9>	0
<0xFA>	0
<0xFB>	0
<0xFC>	0
<0xFD>	0
<0xFE>	0
<0xFF>	0
.	-3.11188
,	-3.39718
।	-4.21287
▁	-4.24263
▁(	-5.04039
)	-5.0704
▁నుండి	-5.27886
-	-5.32892
▁के	-5.37337
:	-5.40866
▁ఉన్నాయి	-5.49849
▁కి	-5.53577
▁గ్రామం	-5.54934
మీ	-5.61289
▁है	-5.6159
▁में	-5.64278
▁దూరంలో	-5.67792
▁ఉంది	-5.71081
ের	-5.75755
▁10	-5.78201
▁గ్రామంలో	-5.94994
▁-	-5.97441
▁की	-6.02844
▁এবং	-6.06852
▁5	-6.10834
র	-6.1475
▁का	-6.17881
▁ও	-6.20478
▁और	-6.22754
▁కేంద్రం	-6.23182
▁से	-6.25438
▁సౌకర్యం	-6.26894
ে	-6.3659
కి	-6.3802
▁হয়	-6.39516
▁హెక్టార్లు	-6.39805
లో	-6.43577
▁एक	-6.4537
▁సమీప	-6.48449
▁को	-6.49527
▁ఈ	-6.53731
▁করে	-6.54106
ம்	-6.54269
▁"	-6.586
ப்	-6.59877
க்	-6.61392
▁భూమి	-6.61914
▁हैं	-6.71937
▁একটি	-6.74679
▁పైబడిన	-6.74806
"	-6.75221
கள்	-6.80161
ी	-6.80195
▁এই	-6.80876
▁ద్వారా	-6.81139
▁ప్రభుత్వ	-6.8145
▁आहे	-6.8446
s	-6.84937
▁కళాశాల	-6.89098
▁సంఖ్య	-6.8978
কে	-6.90036
▁তার	-6.9009
▁করা	-6.90338
▁করেন	-6.90574
▁থেকে	-6.91276
▁তিনি	-6.91469
▁వైద్య	-6.92267
த்	-6.93327
▁पर	-6.95427
▁పాఠశాల	-6.95555
▁या	-6.9563
▁மற்றும்	-6.9814
ం	-6.9898
'	-7.02066
ों	-7.0309
▁రహదారి	-7.03649
/	-7.04329
▁జిల్లా	-7.04408
स	-7.05108
▁ஒரு	-7.05311
▁সালে	-7.07317
▁కూడా	-7.07375
▁గ్రామానికి	-7.0826
▁వ్యవస్థ	-7.1196
▁సరఫరా	-7.13135
ను	-7.1346
▁ప్రైవేటు	-7.13469
▁व	-7.14255
▁এর	-7.15328
▁आणि	-7.17118
ा	-7.17743
▁లేదు	-7.19508
▁ने	-7.23524
▁ప్రాథమిక	-7.24216
లు	-7.25476
▁of	-7.26154
▁ఒక	-7.28736
▁ఆరోగ్య	-7.29313
;	-7.29905
▁জন্য	-7.3088
▁भी	-7.31089
▁సామాజిక	-7.31705
▁సౌకర్యాలు	-7.32022
▁বা	-7.32222
▁ही	-7.32431
े	-7.32778
▁వ్యవసాయ	-7.3319
▁–	-7.3554
గా	-7.3665
కు	-7.38424
▁లోపు	-7.39545
ই	-7.40553
▁'	-7.41108
▁किया	-7.42865
টি	-7.43587
▁కింది	-7.4464
▁यह	-7.4487
च्या	-7.45231
ச்	-7.47464
),	-7.4818
ని	-7.4987
न	-7.49938
▁था	-7.51817
▁মধ্যে	-7.53014
त	-7.53421
▁लिए	-7.53568
ల	-7.5422
▁the	-7.5455
▁कि	-7.55303
▁इस	-7.56063
▁ছিল	-7.56415
ন	-7.5686
ও	-7.57181
▁/	-7.57196
তে	-7.57628
▁हे	-7.58382
▁এ	-7.5998
ला	-7.6081
▁ఉన్న	-7.62059
లోను	-7.62821
▁నీరు	-7.64735
▁ఎక్కువ	-7.65927
▁విద్యా	-7.66191
து	-7.6632
क	-7.67135
 	-7.6746
য়	-7.67511
న	-7.67512
ு	-7.68264
স	-7.68632
▁జనగణన	-7.68675
ல்	-7.6913
▁गया	-7.69376
ும்	-7.69495
▁కంటే	-7.71232
▁బ్యాంకు	-7.71288
▁সাথে	-7.71549
▁ఆసుపత్రి	-7.71569
▁రవాణా	-7.71669
▁పబ్లిక్	-7.71808
▁হিসেবে	-7.71895
ने	-7.71922
▁పాటు	-7.72325
▁షెడ్యూల్డ్	-7.72995
▁పథకం	-7.73015
▁ఫోన్	-7.73189
▁నీటి	-7.73238
▁সালের	-7.73747
ి	-7.73825
▁వారం	-7.73835
▁ఆఫీసు	-7.74658
▁పోస్టాఫీసు	-7.75161
▁इ	-7.75672
দের	-7.76022
▁ఆ	-7.76085
चे	-7.76941
ता	-7.77314
▁విద్యుత్	-7.77375
▁हो	-7.7755
▁जो	-7.7766
▁వాణిజ్య	-7.77859
▁లేని	-7.78433
▁যায়	-7.78539
▁ఇతర	-7.79172
▁যে	-7.79542
ன்	-7.79682
রা	-7.79815
▁వైద్యశాల	-7.80398
▁కోడ్	-7.80477
▁कर	-7.80589
▁हा	-7.80599
ము	-7.8081
▁जाता	-7.822
’	-7.82305
తో	-7.82315
▁వ్యవసాయం	-7.82354
ారు	-7.82893
र	-7.82969
▁होते	-7.83146
▁না	-7.83202
ক	-7.83328
▁గంటల	-7.8342
▁వనరుల	-7.83486
▁and	-7.84028
▁होता	-7.84179
▁প্রথম	-7.84231
ు	-7.8462
▁இது	-7.85158
▁ఇది	-7.85435
▁இந்த	-7.86313
▁रूप	-7.86535
யின்	-7.86742
▁రోడ్లు	-7.86857
▁వ్యవసాయానికి	-7.86936
▁7	-7.87099
▁যা	-7.87318
▁మీ	-7.87639
யில்	-7.88318
▁బంజరు	-7.88387
▁এটি	-7.88466
க்கு	-7.88673
ின்	-7.89104
म	-7.89208
चा	-7.90168
த்தில்	-7.92553
களை	-7.92596
ా	-7.92827
▁হয়ে	-7.92862
▁ఉన్నారు	-7.94061
▁సినిమా	-7.9452
▁ஆம்	-7.95434
च	-7.95967
▁:	-7.96014
ஸ்	-7.96636
వ	-7.96672
ं	-7.96794
া	-7.9682
களில்	-7.96978
ি	-7.97504
ल	-7.97522
లోనూ	-7.97734
▁ছিলেন	-7.98035
ী	-7.98088
▁ఒకటి	-8.0021
▁ప్రకారం	-8.00288
ில்	-8.0038
▁तथा	-8.00991
களின்	-8.01208
்	-8.01282
ात	-8.01587
▁స్టేషన్	-8.01888
▁డిగ్రీ	-8.02293
▁नहीं	-8.02545
▁లో	-8.02695
▁என்ற	-8.02834
▁রয়েছে	-8.02916
▁হল	-8.03572
‌	-8.03712
▁এক	-8.03959
▁চলচ্চিত্র	-8.03991
▁அல்லது	-8.04093
▁भारतीय	-8.04471
▁వ	-8.04613
▁ప్రధాన	-8.0482
▁భారత	-8.05066
(	-8.05086
ர்	-8.05482
▁జరుగుతోంది	-8.06173
▁4	-8.06269
%	-8.06784
▁भारत	-8.06981
▁द्वारा	-8.07095
ना	-8.07909
▁হয়েছে	-8.08366
స్	-8.0857
▁உள்ள	-8.0904
▁करने	-8.09246
▁|	-8.09969
▁করতে	-8.10186
ची	-8.10431
▁थे	-8.10919
▁యొక్క	-8.11492
ங்கள்	-8.11672
▁तो	-8.11814
▁2011	-8.12113
▁পর	-8.12352
▁பல	-8.12801
▁आहेत	-8.1316
▁তাদের	-8.13414
▁साथ	-8.13956
ాలు	-8.14336
▁ते	-8.14599
▁என்று	-8.14848
▁6	-8.15318
▁‘	-8.1536
த்தின்	-8.15625
▁ఏడాది	-8.15784
▁బి	-8.15886
யும்	-8.16063
ய	-8.16132
▁అందుతుంది	-8.16173
▁జాతీయ	-8.16281
▁పొడుగునా	-8.17856
ాన్ని	-8.1799
▁బావులు	-8.18001
▁చెందిన	-8.18302
▁సంస్థ	-8.18853
▁இவர்	-8.19993
▁থাকে	-8.20836
ম	-8.20837
2	-8.20847
▁రాష్ట్ర	-8.20982
▁అభివృద్ధి	-8.21056
▁in	-8.21483
ే	-8.21568
▁కోసం	-8.22492
▁ஆண்டு	-8.22519
▁ఉప	-8.2263
▁బస్సు	-8.22857
క	-8.2287
▁होती	-8.23035
▁সময়	-8.23464
▁భూ	-8.24725
▁করার	-8.25359
▁என்பது	-8.25664
யை	-8.26483
▁ஆகும்	-8.26655
▁తిరిగి	-8.26755
▁বছর	-8.27056
▁একজন	-8.27933
▁হন	-8.28123
▁ప్రత్యేక	-8.28775
▁নিয়ে	-8.29561
ली	-8.29629
▁முதல்	-8.29734
ाच्या	-8.30048
వి	-8.30293
த்தை	-8.30365
▁तक	-8.30461
▁ప్రవహిస్తుంది	-8.30568
▁టి	-8.30585
▁కాలువల	-8.30853
▁11	-8.31318
▁మురుగునీరు	-8.31359
▁बाद	-8.31564
ை	-8.32143
▁1	-8.3245
▁రైల్వే	-8.32536
▁కుటుంబ	-8.32594
▁మాధ్యమిక	-8.32906
▁గణాంకాల	-8.33115
▁নাম	-8.33566
▁విధంగా	-8.33801
ो	-8.34254
এর	-8.34455
▁अपने	-8.3494
▁2	-8.35401
▁न	-8.35597
▁The	-8.35652
▁শুরু	-8.3566
▁15	-8.35705
ले	-8.35916
▁వృత్తి	-8.36343
জ	-8.36526
▁సంఘం	-8.3662
▁శిక్షణ	-8.3667
ன	-8.367
▁మండల	-8.36782
▁మొదలైనవి	-8.36814
▁A	-8.36876
▁বিভিন্ন	-8.37013
▁సంత	-8.37062
▁బృందం	-8.37107
▁হয়েছিল	-8.37337
▁துடுப்பாட்ட	-8.37523
▁అండ్	-8.37606
▁ప్రాథమికోన్నత	-8.37815
ল	-8.37833
▁విస్తరించి	-8.37875
ంగా	-8.37896
कर	-8.38044
ட்	-8.38101
▁కాగా	-8.3811
▁పౌర	-8.38227
▁సామాన్య	-8.38586
▁సహకార	-8.3864
এ	-8.38781
▁కార్యకర్త	-8.39093
▁వివిధ	-8.3912
▁స్వయం	-8.39156
▁డాక్టర్లు	-8.39247
▁జరుగుతుంది	-8.3939
▁నమోదు	-8.39421
▁পর্যন্ত	-8.39633
சு	-8.3967
▁కులాల	-8.39679
▁12	-8.39689
▁సేవా	-8.40004
▁ভারতের	-8.40012
▁తెగల	-8.40013
▁ఔషధ	-8.40125
▁సమాచార	-8.40142
▁సైన్స్	-8.40175
▁కార్యాలయం	-8.40281
▁ఆర్ట్స్	-8.40328
▁వినోద	-8.40331
▁ఆటో	-8.4036
▁జనన	-8.40417
▁জন	-8.40933
▁సొసైటీ	-8.41049
வை	-8.4108
▁జూనియర్	-8.41151
▁పశు	-8.41283
▁లైన్	-8.413
▁సంక్షేమ	-8.41376
▁स्थित	-8.41416
▁ఆటల	-8.41416
▁శిశు	-8.41422
▁ఆరోగ్యం	-8.41446
▁సహాయక	-8.41489
▁గ్రంథాలయం	-8.41526
▁వినియోగం	-8.41552
▁మరణాల	-8.41599
▁మగవారి	-8.416
▁బాలల	-8.41656
▁ఇంటర్నెట్	-8.41692
களும்	-8.41761
▁జనాభాతో	-8.41813
▁ఆడవారి	-8.41847
তা	-8.41909
▁ప్రత్యామ్నాయ	-8.41936
న్నాయి	-8.4201
▁మైదానం	-8.42021
▁హెక్టార్లలో	-8.42047
▁సబ్	-8.42092
▁ఇళ్లతో	-8.42149
▁పోషణ	-8.42167
▁ভারতীয়	-8.42198
▁ఆశా	-8.42309
▁వార్తాపత్రిక	-8.42386
▁లొకేషన్	-8.4244
ही	-8.42496
▁టెలిఫోన్	-8.42561
▁మాతా	-8.42614
▁సంపూర్ణ	-8.42624
▁మార్కెటింగ్	-8.42869
▁పారిశుధ్య	-8.42881
▁అంగన్	-8.42912
▁అనియత	-8.42967
ज	-8.43024
▁పోలింగ్	-8.43081
▁రూం	-8.43107
▁రీడింగ్	-8.43116
▁వాడీ	-8.43122
▁సంరక్షణ	-8.43126
▁దివ్యాంగుల	-8.43143
▁కంకర	-8.43167
▁మొబైల్	-8.43187
▁కొరియర్	-8.43194
▁బ్యాంకింగు	-8.43206
▁మార్కెటింగు	-8.43245
▁दिया	-8.43316
▁కేంద్రాలు	-8.43319
▁సరఫరాల	-8.43348
▁अ	-8.43748
▁సంచార	-8.43955
▁పోస్ట్	-8.43986
व	-8.44036
▁లోను	-8.44266
▁నిమిత్తం	-8.44357
▁কিছু	-8.44652
▁জাতীয়	-8.44709
▁పంపిణీ	-8.44743
▁राज्य	-8.44778
▁3	-8.44799
▁वह	-8.44893
▁हुआ	-8.44916
▁హాలు	-8.44933
▁ఉత్పాదక	-8.44946
▁పోషకాహార	-8.45085
ర్	-8.45154
▁టెలిగ్రాఫ్	-8.45162
▁వీధుల	-8.45202
్	-8.45235
▁పరపతి	-8.4537
▁సమీకృత	-8.45434
▁సేకరించే	-8.4548
▁గృహావసరాల	-8.45595
▁వ్యర్థాలను	-8.45619
ाचे	-8.45635
▁మేనేజిమెంటు	-8.45678
▁బయోగ్యాస్	-8.45699
▁మరుగుదొడ్డి	-8.45715
▁కెఫె	-8.45729
▁పక్కనే	-8.45845
▁డిస్పెన్సరీ	-8.46009
▁అలోపతి	-8.46013
▁ఉత్పత్తి	-8.46029
▁ఇంటింటికీ	-8.46164
▁విత్తిన	-8.46199
▁थी	-8.46274
నికరంగా	-8.46287
▁లాండ్	-8.46425
▁కేంద్రమైన	-8.46561
న్	-8.46593
▁एवं	-8.46882
▁పారబోస్తారు	-8.46896
▁পারে	-8.47266
▁మురుగునీటిని	-8.47316
பி	-8.47425
ி	-8.47523
▁বাংলাদেশের	-8.47925
ट	-8.47973
▁তারা	-8.47995
ాడు	-8.48001
▁ఏటీఎమ్	-8.4814
▁என	-8.4816
సమీప	-8.48384
▁क्षेत्र	-8.48526
▁చెత్తను	-8.49123
మ	-8.49278
▁అమలవుతోంది	-8.49426
ते	-8.49469
▁చేసిన	-8.49514
▁சில	-8.49776
प	-8.49832
▁8	-8.49898
▁পুরস্কার	-8.49899
না	-8.50057
▁இருந்து	-8.50073
▁తన	-8.50086
▁जा	-8.50088
▁মার্কিন	-8.50179
ేతర	-8.502
▁పారామెడికల్	-8.50322
க	-8.50403
▁చేస్తున్నారు	-8.50527
▁ব্যবহার	-8.50661
▁বলে	-8.50735
▁नाम	-8.50804
▁প্রধান	-8.50846
▁কিন্তু	-8.5086
ड	-8.50981
▁দিয়ে	-8.511
▁అ	-8.51179
▁దూరం	-8.51524
▁పట్టణమైన	-8.51812
▁তাকে	-8.51983
▁அ	-8.52051
▁जाते	-8.5212
▁రోజుకు	-8.52713
▁দ্বারা	-8.5274
ది	-8.52763
▁న	-8.52916
▁మార్కెట్	-8.53309
ుడు	-8.53418
ానికి	-8.53631
▁వినియోగంలో	-8.53755
▁போன்ற	-8.54267
▁తెలంగాణ	-8.54442
ाची	-8.5505
▁वे	-8.55447
▁মাধ্যমে	-8.55637
▁దూరంలోనూ	-8.55999
ed	-8.56048
ত	-8.56062
▁రెండు	-8.56395
▁দক্ষিণ	-8.56543
▁అవసరాల	-8.56571
▁=	-8.56826
▁లభిస్తున్న	-8.5685
▁కుళాయిల	-8.56917
मध्ये	-8.57055
▁অ	-8.57106
▁16	-8.5719
▁రోజువారీ	-8.57251
▁చేతిపంపుల	-8.57469
▁వస్తువులు	-8.58057
▁জেলার	-8.58065
ाचा	-8.5855
▁आ	-8.58623
▁करते	-8.58629
▁అని	-8.58793
▁कुछ	-8.58808
▁তা	-8.5893
▁অবস্থিত	-8.58962
வும்	-8.59096
▁బస్సులు	-8.5916
▁మొదలైన	-8.59395
▁தமிழ்	-8.59473
டி	-8.59628
▁துடுப்பாட்டப்	-8.59639
▁নামে	-8.59656
▁হতে	-8.60238
வர்	-8.60246
▁மேலும்	-8.60465
నే	-8.60748
▁సాగునీరు	-8.61199
▁কাজ	-8.61412
▁প্রায়	-8.61586
ார்	-8.6162
▁அவர்	-8.61789
ित	-8.62199
ర	-8.62383
▁అవుతున్నాయి	-8.62503
▁గుండా	-8.6301
లను	-8.63175
3	-8.63358
▁జనాభా	-8.63468
▁S	-8.63624
▁అసెంబ్లీ	-8.63659
ि	-8.64058
▁14	-8.64089
▁उत्तर	-8.64157
▁হার	-8.64175
ব	-8.64369
▁अधिक	-8.64403
▁अनेक	-8.64677
வ	-8.64762
n	-8.65107
▁केले	-8.66283
▁पुरस्कार	-8.663
▁ক্রিকেট	-8.66477
ब	-8.66486
▁भाषा	-8.66549
மான	-8.66662
▁a	-8.66807
▁বেশি	-8.6683
▁অনেক	-8.66888
▁గ్రామాల	-8.67139
e	-8.674
वर	-8.67475
ातील	-8.67513
▁ఇంజనీరింగ్	-8.6754
–	-8.6754
▁समय	-8.6774
▁తెలుగు	-8.67752
▁20	-8.67852
▁আছে	-8.67897
పిన్	-8.68157
▁করেছেন	-8.68737
ల్	-8.68836
▁कारण	-8.68872
▁మండలానికి	-8.68906
▁असे	-8.68943
ா	-8.69033
▁प्रकार	-8.69103
▁తారు	-8.69272
▁शहर	-8.6933
மாக	-8.69387
ह	-8.69423
ভাবে	-8.69547
சி	-8.69604
త	-8.69689
ing	-8.69855
▁இல்	-8.69961
▁উপর	-8.69975
▁করেছিলেন	-8.70114
द	-8.70123
▁கொண்ட	-8.7015
▁బాలబడి	-8.7022
▁இந்திய	-8.7038
▁সে	-8.70425
▁పాఠశాలలు	-8.70759
▁কোন	-8.70925
▁17	-8.71221
▁ক্রিকেটার	-8.71315
▁శ్రీ	-8.71407
ाने	-8.71426
▁আর	-8.71748
▁বাংলাদেশ	-8.71923
▁हुए	-8.72065
▁তবে	-8.72155
▁भाग	-8.72267
▁আন্তর্জাতিক	-8.7243
▁లోని	-8.72455
▁என்னும்	-8.7269
रा	-8.72698
வின்	-8.72818
▁ప్రాంతాల	-8.72969
▁काम	-8.73288
▁9	-8.73394
y	-8.73398
▁ముందు	-8.73411
▁కొరకు	-8.73676
▁অংশ	-8.73885
క్	-8.73929
नी	-8.7396
னர்	-8.7406
▁উত্তর	-8.74465
▁অন্যান্য	-8.74544
ీ	-8.74639
▁திரைப்படங்கள்	-8.74646
▁உள்ளது	-8.74752
▁இ	-8.74824
▁১	-8.74897
ம	-8.74933
1	-8.74938
▁इसके	-8.74964
▁লাভ	-8.74967
▁বি	-8.75148
▁प्रदेश	-8.75177
या	-8.75357
ப்பட்ட	-8.75509
री	-8.75844
গুলি	-8.75886
▁సిబ్బంది	-8.76002
ण	-8.76341
▁যার	-8.76411
वा	-8.76619
ई	-8.76622
ার	-8.76779
▁to	-8.76955
▁वि	-8.76963
த	-8.77133
த்த	-8.77606
களுக்கு	-8.77809
▁శాల	-8.77874
▁పునర్వ్య	-8.77931
▁হিসাবে	-8.78024
▁లేరు	-8.78228
▁अन्य	-8.78452
▁నేరుగా	-8.78646
▁करता	-8.78701
▁मध्ये	-8.78794
రా	-8.78825
▁తరువాత	-8.78917
ती	-8.78954
▁मे	-8.79245
a	-8.79516
ট	-8.79524
প	-8.79549
ஆம்	-8.79988
▁అనే	-8.80917
ట్	-8.80924
▁13	-8.8106
ச	-8.81181
▁C	-8.81209
▁प्रमुख	-8.81232
▁जाती	-8.81286
al	-8.81452
▁తిరుగుతున్నాయి	-8.81601
বি	-8.81867
▁वर्ष	-8.81911
வி	-8.82096
ীয়	-8.82119
▁ये	-8.82317
▁मंदिर	-8.82391
▁পরে	-8.82418
▁జిల్లాల	-8.82517
▁18	-8.82541
▁బహిరంగ	-8.82567
డి	-8.82904
”	-8.8291
க்க	-8.82914
ரி	-8.82974
▁||	-8.83084
▁साहित्य	-8.83168
?	-8.83232
ीय	-8.83247
নি	-8.83368
யாக	-8.83987
మైన	-8.83994
▁గ్రామ	-8.84024
▁வரை	-8.84173
মা	-8.84511
▁“	-8.84706
▁ஆண்டில்	-8.84892
கா	-8.855
▁আ	-8.85513
▁వదులుతున్న	-8.85887
▁দেখা	-8.85941
d	-8.85954
▁మంచినీటి	-8.8602
▁उनके	-8.86282
▁दो	-8.86318
▁सबसे	-8.8636
]	-8.8642
▁१	-8.8644
▁দিকে	-8.86495
ப	-8.86589
य	-8.866
▁వి	-8.86681
▁राष्ट्रीय	-8.86825
▁मराठी	-8.86842
ాల	-8.86885
ू	-8.86969
শ	-8.87438
▁প্রতি	-8.8752
ங்களில்	-8.87653
▁జలవనరుల్లోకి	-8.87676
▁రక్షిత	-8.87841
ிய	-8.87851
▁येथे	-8.87864
బోరు	-8.88098
्स	-8.88298
िक	-8.88688
సి	-8.88809
▁পরিচিত	-8.89
▁দ্বিতীয়	-8.89041
পুর	-8.89204
▁त्यांनी	-8.89268
மா	-8.89317
▁இருக்கும்	-8.89627
▁ই	-8.89627
రి	-8.89912
▁ఉండేది	-8.8992
গুলো	-8.89942
ाला	-8.89965
S	-8.90046
ग	-8.90075
ून	-8.90151
க்கும்	-8.90157
ులు	-8.90382
▁সদস্য	-8.90473
▁২	-8.90512
▁বাংলা	-8.90581
▁আল	-8.90607
▁তৈরি	-8.90804
மும்	-8.90811
्	-8.90962
का	-8.90981
▁गाँव	-8.91102
▁होने	-8.91412
▁ట్రాక్టర్లు	-8.91523
గ	-8.91571
▁त्या	-8.91762
ए	-8.91788
सी	-8.92119
4	-8.92169
▁లోనూ	-8.92171
in	-8.92175
▁म्हणून	-8.92204
▁कई	-8.92253
மை	-8.92444
▁பயன்படுத்த	-8.92459
▁பின்னர்	-8.92529
రు	-8.92658
▁శుద్ధి	-8.92954
ियों	-8.9297
▁অব	-8.93182
▁केली	-8.93223
నా	-8.93241
▁கி	-8.93283
▁ফলে	-8.93344
ాడేందుకు	-8.9338
t	-8.93412
▁বিশ্ববিদ্যালয়	-8.93544
|	-8.93579
▁দল	-8.93742
▁இதன்	-8.93765
పు	-8.93767
టి	-8.93818
▁க	-8.93866
▁த	-8.94231
ো	-8.94368
ப்பட்டது	-8.94407
வு	-8.94515
▁देश	-8.94516
లా	-8.94529
ং	-8.94663
ப்ப	-8.94676
▁రాష్ట్రం	-8.94749
o	-8.94783
▁उन्होंने	-8.9482
னி	-8.94937
▁மூலம்	-8.95203
er	-8.9527
मा	-8.95434
▁தனது	-8.95434
▁ভাষা	-8.95608
▁किसी	-8.95634
▁कहा	-8.95643
▁()	-8.96205
▁கொண்டு	-8.96303
श	-8.96368
▁बहुत	-8.96616
▁அதன்	-8.9671
▁বিদ্যালয়	-8.96741
▁ஆனால்	-8.9677
▁सकता	-8.96816
▁P	-8.96909
ిన	-8.96917
లలో	-8.96932
▁বড়	-8.97062
▁अपनी	-8.97369
ంలో	-8.97517
▁পূর্ব	-8.97704
ద	-8.97752
పై	-8.97839
▁দলের	-8.97864
जी	-8.98167
▁नाही	-8.98203
▁हिन्दी	-8.98326
A	-8.98429
িক	-8.98525
▁বলা	-8.98605
দ	-8.98636
▁పాఠశాల‌లు	-8.98716
த்து	-8.9885
▁సాగని	-8.99103
▁কারণে	-8.99152
డం	-8.99225
▁जब	-8.99283
ால்	-8.99415
▁द	-8.99523
B	-8.99662
▁स	-8.99676
লা	-8.99957
▁మండలంలో	-9.00108
ింది	-9.00182
▁B	-9.00196
▁कार्य	-9.00243
▁மக்கள்	-9.00247
▁आदि	-9.00333
▁ह्या	-9.00397
▁यांनी	-9.00572
க்காரர்கள்	-9.00604
▁পাওয়া	-9.0095
చేయదగ్గ	-9.0102
య	-9.01053
▁মা	-9.01054
ாக	-9.01124
▁হবে	-9.01207
ড	-9.01417
কা	-9.01445
தி	-9.01507
▁वाले	-9.01517
▁ఇదే	-9.01645
ான	-9.01694
జ	-9.01785
இ	-9.01913
▁ஆகிய	-9.0211
லி	-9.02322
▁সাল	-9.02322
ावर	-9.02352
▁ஏ	-9.02559
▁দুই	-9.02567
লি	-9.02617
▁নতুন	-9.02647
▁दक्षिण	-9.02767
ப்படுகிறது	-9.02996
வே	-9.03245
▁সেই	-9.03248
▁पूर्व	-9.03843
▁সঙ্গে	-9.03875
ந்த	-9.03988
িত	-9.04212
▁तर	-9.04233
▁দেন	-9.04342
ப்பு	-9.04505
▁দ্য	-9.04526
▁মে	-9.04651
▁मुख्य	-9.047
▁इन	-9.04815
▁বিজয়ী	-9.04879
வில்	-9.04897
ओं	-9.04916
లి	-9.05104
▁हुई	-9.05349
▁गए	-9.05406
▁G	-9.05431
▁হচ্ছে	-9.0544
सा	-9.05646
://	-9.05647
▁শতাব্দীর	-9.05748
▁இரு	-9.05761
▁2001	-9.05829
ர	-9.05866
▁কাছে	-9.05978
▁ఒకరు	-9.06011
▁राजा	-9.06106
▁கலந்து	-9.0632
▁பி	-9.06359
i	-9.06364
▁সু	-9.06411
డ్	-9.06442
ప	-9.06579
ரா	-9.06838
▁నటించిన	-9.06896
ांच्या	-9.07066
ंग	-9.07102
▁சி	-9.07112
వస్థీకరణకు	-9.0712
வா	-9.0721
▁প্রতিষ্ঠিত	-9.07257
களையும்	-9.0728
స	-9.07292
▁श्री	-9.07299
▁இரண்டு	-9.07308
▁শহরের	-9.07635
▁দেয়	-9.07662
গ	-9.07704
▁प्रसिद्ध	-9.07962
ాయి	-9.08012
▁गई	-9.08231
▁টি	-9.08352
▁అందుబాటులో	-9.08383
ట	-9.08562
▁धर्म	-9.08681
▁மொழி	-9.08862
னா	-9.0891
▁नदी	-9.08962
▁प्राप्त	-9.09015
▁শহর	-9.09138
▁কলেজ	-9.09434
லா	-9.09554
మి	-9.09607
▁এখানে	-9.09608
ல	-9.09612
▁2016	-9.0969
▁போது	-9.09722
లకు	-9.09896
▁উচ্চ	-9.09975
▁पहले	-9.10081
▁শেষ	-9.10255
▁क्रिकेट	-9.10305
টির	-9.10343
ே	-9.10363
▁কম	-9.10453
▁உள்ளன	-9.10713
C	-9.10792
पुर	-9.10844
▁कम	-9.10982
▁భూములు	-9.11012
▁অন্যতম	-9.1108
▁by	-9.1111
▁ఇద్దరు	-9.11114
டு	-9.11222
▁काही	-9.11318
ங்களை	-9.11328
▁చాలా	-9.11343
বা	-9.11367
▁निर्माण	-9.11439
పి	-9.11489
▁सर्व	-9.11517
யான	-9.11728
▁బావుల	-9.11858
▁[	-9.11972
▁सु	-9.12025
▁केला	-9.12039
ঃ	-9.12309
▁झाले	-9.12455
▁లేదా	-9.12558
ப்படும்	-9.12688
த்திற்கு	-9.12705
మా	-9.12858
▁तीन	-9.12897
లోని	-9.12942
▁जन्म	-9.12979
▁F	-9.13076
▁సాగులో	-9.1309
▁పెద్ద	-9.13097
▁যেমন	-9.13207
அ	-9.13226
▁வி	-9.1335
मधील	-9.13369
▁பெயர்	-9.13632
▁स्थान	-9.13812
▁బీడు	-9.13842
▁किंवा	-9.13918
▁భూముల్లో	-9.13992
▁కానివి	-9.14204
ాలను	-9.14296
▁నుంచి	-9.1439
▁அது	-9.14489
अ	-9.14527
▁করেছে	-9.14661
▁१८	-9.14729
▁పోతోంది	-9.14831
▁அந்த	-9.14888
डी	-9.14914
▁30	-9.14996
১	-9.15105
▁प्र	-9.15184
▁चित्रपट	-9.15235
সি	-9.15519
களைக்	-9.15777
▁৩	-9.15845
▁लोक	-9.16114
▁शब्द	-9.16238
com	-9.16278
డు	-9.16441
▁সবচেয়ে	-9.16476
৫	-9.16536
b	-9.16764
▁२	-9.16846
யா	-9.16921
▁১৭	-9.16954
वि	-9.17121
▁जैसे	-9.1729
▁সি	-9.17477
▁ব্রিটিশ	-9.17481
வது	-9.17531
డానికి	-9.17551
▁महाराष्ट्र	-9.17557
▁ச	-9.17595
▁M	-9.17601
▁ఏ	-9.1764
ரை	-9.17755
▁K	-9.17925
्य	-9.17939
▁for	-9.17951
ూ	-9.18027
▁on	-9.18035
▁25	-9.18035
▁పి	-9.18114
▁పాత	-9.18315
▁जी	-9.18626
▁विकास	-9.18628
▁பெற்ற	-9.18664
▁उपलब्ध	-9.1887
▁மு	-9.19058
▁బహిరంగంగా	-9.19168
▁जीवन	-9.19262
▁স্থান	-9.19305
▁उन्हें	-9.19439
▁শিক্ষা	-9.19705
▁క	-9.1971
▁৬	-9.19716
▁ఉంటుంది	-9.19784
▁இருந்த	-9.19803
▁কারণ	-9.19827
ফ	-9.19835
m	-9.1988
▁தமிழ்த்	-9.19993
▁उसके	-9.20037
▁కచ్చా	-9.2012
▁டி	-9.20131
▁வேண்டும்	-9.20205
=	-9.20296
▁పేరు	-9.20311
▁ए	-9.20314
▁কথা	-9.20371
▁என்றும்	-9.20555
इ	-9.20633
r	-9.20691
c	-9.20737
▁সরকার	-9.20747
డ	-9.20991
0	-9.21056
▁খেলোয়াড়	-9.21089
▁তালিকা	-9.21145
▁रहा	-9.21212
▁మండలంలోని	-9.21239
▁सरकार	-9.21431
▁E	-9.2146
ांची	-9.21547
கி	-9.21659
▁নি	-9.217
▁ముగ్గురు	-9.21707
▁लेकिन	-9.21707
▁பெரிய	-9.21737
▁সাক্ষরতার	-9.21827
!	-9.21857
▁இங்கிலாந்து	-9.21966
▁प्रयोग	-9.22037
▁সরকারি	-9.22043
▁పాలీటెక్నిక్	-9.2212
మ్మ	-9.22127
▁ইউনিয়ন	-9.2214
▁ধরনের	-9.2219
টা	-9.22531
▁বিশেষ	-9.22722
▁H	-9.22926
தாக	-9.23033
லை	-9.23121
கு	-9.23143
▁उस	-9.2319
▁వారి	-9.23257
மி	-9.23317
্য	-9.23634
య్య	-9.23666
▁इसका	-9.23711
▁முறை	-9.23711
▁இவை	-9.23863
▁সাধারণ	-9.23968
▁కొన్ని	-9.24027
▁যেখানে	-9.24129
के	-9.2415
▁బోరుబావుల	-9.24155
▁অফ	-9.24192
▁কে	-9.24217
▁সংখ্যা	-9.24396
▁కేంద్రంలో	-9.24425
ভ	-9.24496
মি	-9.24554
ख	-9.24649
ु	-9.24899
▁மிகவும்	-9.25067
▁தி	-9.25155
িয়া	-9.25184
▁रहे	-9.25222
▁మండలం	-9.253
ந்து	-9.2549
▁কোনো	-9.25547
▁19	-9.25721
▁যখন	-9.25843
রি	-9.25867
us	-9.25885
▁১৮	-9.25915
▁వరకు	-9.25962
▁ஆ	-9.25975
▁१०	-9.26018
▁அமெரிக்க	-9.26149
ांना	-9.26377
▁ব্যক্তি	-9.26534
ांनी	-9.26536
▁নয়	-9.26591
হ	-9.26646
▁সহ	-9.26684
▁सभी	-9.26687
▁ভারত	-9.26703
ங்	-9.26785
▁বর্তমানে	-9.26796
▁అక్టోబరు	-9.26853
▁వంటి	-9.26908
▁డాక్టరు	-9.26929
▁उनकी	-9.26942
சா	-9.27079
▁जाने	-9.27119
▁म	-9.27133
▁अनुसार	-9.27438
তার	-9.27486
গুলির	-9.27636
২	-9.27816
▁১০	-9.27913
পা	-9.27967
▁ఎ	-9.28097
▁दिल्ली	-9.28435
▁প্রকাশ	-9.28551
▁ई	-9.28585
ांचे	-9.2859
D	-9.28814
▁எ	-9.28873
▁21	-9.29028
తి	-9.29079
▁দুটি	-9.29115
▁देव	-9.29174
▁మధ్య	-9.29279
▁পুরুষ	-9.29296
▁அவரது	-9.29466
▁असून	-9.29467
সা	-9.29474
th	-9.29498
▁நிலை	-9.29524
रे	-9.29564
▁यांच्या	-9.29849
▁विश्व	-9.29911
▁তখন	-9.2996
▁करना	-9.3002
అ	-9.3014
▁कोई	-9.30411
ుల	-9.30471
రీ	-9.30572
▁बीच	-9.30624
▁మూడు	-9.30718
▁ক্ষেত্রে	-9.30728
▁மூன்று	-9.3073
▁उसे	-9.30856
▁24	-9.30949
▁करून	-9.30974
▁இலங்கை	-9.31055
▁प	-9.3111
டன்	-9.31164
▁দেওয়া	-9.31184
▁একই	-9.31212
P	-9.31267
6	-9.31302
িং	-9.31345
▁చిన్న	-9.3136
నీ	-9.31401
▁অনুযায়ী	-9.31478
H	-9.31492
ுதல்	-9.31667
ळ	-9.31809
వా	-9.31874
▁2008	-9.31906
னை	-9.31941
▁ব্যবহৃত	-9.31964
▁গ্রহণ	-9.32019
▁போர்	-9.32033
▁করেছিল	-9.32191
▁অর্থ	-9.32193
▁মতো	-9.32243
సు	-9.32258
▁मध्य	-9.32292
▁নারী	-9.32358
▁১৫	-9.32359
▁I	-9.3243
▁அவை	-9.32455
▁వారు	-9.32461
▁ఆయన	-9.32473
▁தேசிய	-9.32528
কার	-9.32587
களால்	-9.32618
▁युद्ध	-9.32627
శ	-9.32636
en	-9.32645
▁यहाँ	-9.32654
टी	-9.32661
▁தேர்வுத்	-9.32713
▁त्यांच्या	-9.32788
லாம்	-9.32878
▁জন্ম	-9.32894
▁మంది	-9.33078
_	-9.33102
▁ঢাকা	-9.33104
▁प्रति	-9.33187
▁T	-9.33476
▁নদী	-9.33546
য়া	-9.33704
▁ক	-9.33711
▁राज	-9.33766
▁नि	-9.33823
யே	-9.33857
es	-9.33921
▁கே	-9.33956
▁অন্য	-9.33965
▁ప్రాంతాలు	-9.34069
కా	-9.34072
ங்களின்	-9.34129
▁22	-9.34134
▁इसे	-9.34168
▁చెరువులు	-9.34236
▁ப	-9.34425
ுள்ளது	-9.34562
वे	-9.34657
▁பிற	-9.34761
▁2007	-9.34811
▁অভিনয়	-9.34844
▁ఇ	-9.34848
பா	-9.3491
शी	-9.34918
தா	-9.34955
▁ম	-9.3499
ுக்கு	-9.35128
▁झाला	-9.35128
▁ছোট	-9.35144
▁৪	-9.35211
▁खेळाडू	-9.35323
▁फिल्म	-9.35389
▁चार	-9.35462
▁মত	-9.35465
▁মূল	-9.35477
▁उपयोग	-9.35624
▁প্রদান	-9.35674
5	-9.35707
ें	-9.35743
▁राम	-9.35768
▁నా	-9.35802
▁৫	-9.35838
ட	-9.35905
দা	-9.35991
▁R	-9.36016
तील	-9.36041
▁विशेष	-9.36186
জি	-9.36243
▁প্রাথমিক	-9.36484
▁స	-9.36577
▁ஐ	-9.36671
मी	-9.36793
▁असते	-9.36814
▁D	-9.36861
লে	-9.37004
▁ओर	-9.37025
▁तरह	-9.37108
दा	-9.37142
▁2006	-9.37145
▁নামক	-9.37187
▁அரசு	-9.37302
▁বেশ	-9.37357
▁दिन	-9.37438
वी	-9.37507
▁लिये	-9.3777
▁0	-9.37773
మ్	-9.37877
M	-9.38025
▁N	-9.38061
▁दी	-9.38069
▁ம	-9.38087
▁கால	-9.38186
आ	-9.38255
▁కు	-9.38346
▁ట్రాక్టరు	-9.38384
ரோ	-9.38409
▁স্বাধীনতা	-9.38531
▁फिर	-9.38599
మే	-9.38614
▁আরও	-9.38829
▁பா	-9.38881
▁ओ	-9.38932
▁கா	-9.39046
▁சிறந்த	-9.39056
▁சா	-9.39059
ములు	-9.39075
▁হলো	-9.39083
▁23	-9.39216
▁অনুসারে	-9.39313
▁सर्वात	-9.39442
▁এছাড়াও	-9.39453
▁প্র	-9.39515
▁सा	-9.39548
▁केंद्र	-9.39601
▁কর্তৃক	-9.39652
▁दोन	-9.39692
ांचा	-9.3978
▁অনুষ্ঠিত	-9.39878
దు	-9.39881
▁মোট	-9.39936
▁ஒன்று	-9.39995
மே	-9.40036
কারী	-9.40059
▁डॉ	-9.40278
▁সময়ে	-9.40291
ற்ற	-9.4032
ப்படுகின்றன	-9.40444
▁খান	-9.40446
▁लोगों	-9.40479
য়ে	-9.4053
▁మురుగునీటి	-9.40661
▁संघ	-9.40691
மு	-9.40791
▁পায়	-9.40891
▁மா	-9.40898
▁2009	-9.41101
▁శాశ్వత	-9.41122
▁পালন	-9.41169
k	-9.41246
▁மே	-9.41336
▁लिया	-9.41494
▁நடித்த	-9.41514
▁L	-9.41528
▁अर्थ	-9.41782
▁মনে	-9.41785
F	-9.41874
▁फ़िल्म	-9.41886
న్న	-9.41992
▁संगीत	-9.42012
▁మీద	-9.42052
▁साली	-9.42084
இல்	-9.42102
▁১৬	-9.42209
▁புதிய	-9.42215
से	-9.4233
▁नाव	-9.42374
ल्या	-9.42403
▁३	-9.42432
▁సినిమాలు	-9.42437
১৯	-9.42469
▁ভাষার	-9.42488
▁అనేక	-9.42551
▁জেলা	-9.42659
%।	-9.42666
▁तसेच	-9.42681
▁आले	-9.4289
▁మ	-9.42964
▁यहां	-9.43131
▁మా	-9.43187
g	-9.4323
▁বিশ্ব	-9.43533
▁প্রকাশিত	-9.4361
▁বিরুদ্ধে	-9.43638
০০০	-9.43663
▁এরপর	-9.43672
▁बार	-9.43723
▁স	-9.4374
▁মধ্য	-9.43748
সহ	-9.4375
▁కా	-9.43898
▁बन	-9.43929
▁দায়িত্ব	-9.43959
ণ	-9.43964
▁జిల్లాలో	-9.44025
▁ले	-9.44086
▁வந்த	-9.44098
▁జిల్లాలోని	-9.442
▁పారుదల	-9.44315
l	-9.44461
▁ని	-9.44495
▁काल	-9.44556
▁ஆர்	-9.44673
▁ఆమె	-9.44693
▁যান	-9.44924
▁திரைப்பட	-9.45042
▁हिंदी	-9.45077
▁कु	-9.45111
జ్	-9.4521
▁কি	-9.453
f	-9.45329
▁सिंह	-9.45363
পি	-9.4574
▁অর্জন	-9.4609
▁सी	-9.4609
▁क	-9.46121
▁शामिल	-9.46164
▁உலக	-9.46171
फ	-9.46436
ু	-9.46507
ঁ	-9.46646
▁40	-9.46671
▁১২	-9.46717
▁जल	-9.46844
p	-9.46932
▁बिहार	-9.46966
▁কা	-9.46966
कार	-9.47044
▁ब	-9.47048
▁గా	-9.47246
▁ঘটে	-9.47256
E	-9.47282
▁प्राचीन	-9.47289
G	-9.47299
▁ডি	-9.47317
▁लोग	-9.47339
▁இருந்தது	-9.47435
▁మేత	-9.47508
ங்க	-9.47565
▁আগে	-9.47631
▁অ্যা	-9.47727
▁যদিও	-9.47759
▁எஸ்	-9.4776
▁वर्षे	-9.47944
▁গঠিত	-9.48011
▁முக்கிய	-9.48116
▁সকল	-9.4814
ో	-9.48143
▁অঞ্চল	-9.48159
▁సా	-9.48165
▁नगर	-9.48171
▁விருது	-9.48182
▁கு	-9.48227
▁పచ్చిక	-9.48311
▁வகை	-9.48408
▁அதிக	-9.48558
▁जिसमें	-9.48601
ரின்	-9.48827
K	-9.48974
▁శాసనసభ	-9.48979
▁ग	-9.49073
ास	-9.49094
▁সাধারণত	-9.49372
▁संख्या	-9.49412
▁சு	-9.49516
ப்பட்டு	-9.49534
▁যুদ্ধ	-9.49616
▁திரு	-9.49626
▁কেন্দ্র	-9.49635
▁রাজা	-9.49764
▁அணி	-9.49812
▁दोनों	-9.49843
▁लगभग	-9.49905
▁பகுதி	-9.49926
▁26	-9.49938
थ	-9.49943
త్	-9.49977
চ	-9.49991
చ	-9.50015
▁எனும்	-9.50017
▁झाली	-9.50052
ణ	-9.50141
▁५	-9.50144
▁स्थापना	-9.5017
▁গুরুত্বপূর্ণ	-9.50288
▁ऑफ	-9.50319
▁হওয়ার	-9.50359
▁প্রাক্তন	-9.50406
▁উপজেলার	-9.50416
▁தன்	-9.50416
▁রাজ্যের	-9.50491
▁ঘোষণা	-9.50608
▁इसकी	-9.50729
ज़	-9.50822
▁కాలువలు	-9.50825
▁ఇందులో	-9.5087
*	-9.50946
▁সা	-9.50993
की	-9.51096
▁म्हणजे	-9.51123
களைப்	-9.51176
▁দেশের	-9.51285
▁পা	-9.51408
▁2005	-9.51488
▁পি	-9.51644
िया	-9.51645
▁at	-9.51708
▁ஓர்	-9.51893
▁பல்வேறு	-9.51976
▁50	-9.52053
ుని	-9.5208
▁बनी	-9.52368
▁ধরে	-9.52371
▁ஐக்கிய	-9.52521
ly	-9.52548
னின்	-9.52562
▁సి	-9.52587
▁অবস্থান	-9.52633
களாக	-9.527
▁ప్రతి	-9.52708
▁उप	-9.5273
ासाठी	-9.52741
▁উপজেলা	-9.52999
▁కలిగి	-9.5323
▁பின்	-9.5334
▁கோ	-9.53447
▁रोजी	-9.53462
▁போட்டிகளில்	-9.53536
▁செய்ய	-9.53587
T	-9.53595
আ	-9.53651
▁பொதுவாக	-9.53736
▁मुंबई	-9.53779
নের	-9.538
ডি	-9.53901
▁इतिहास	-9.54169
णे	-9.54459
బి	-9.5448
▁28	-9.54544
উ	-9.54546
िंग	-9.54578
ंड	-9.54602
জা	-9.54629
▁ভাষায়	-9.54661
▁உ	-9.54669
ட்டு	-9.54732
▁வெளிவந்த	-9.54866
▁দেশ	-9.54916
▁সব	-9.54967
சன்	-9.54975
▁లభిస్తుంది	-9.55067
▁পশ্চিম	-9.55104
ங்களும்	-9.55131
▁১৪	-9.55275
▁যোগ	-9.55279
▁এমন	-9.5539
▁இங்கு	-9.55399
▁চলে	-9.554
লো	-9.55403
▁—	-9.55424
▁অভিনেতা	-9.55496
▁অভিনেত্রী	-9.55613
▁দিন	-9.55626
▁करण्यात	-9.55644
▁W	-9.55657
▁పురుషుల	-9.56021
▁प्रथम	-9.56243
▁செ	-9.5629
▁পূর্বে	-9.56366
▁చెరువు	-9.56436
▁এদের	-9.56477
▁ప్లాంట్‌లో	-9.56627
▁பிறப்பு	-9.56651
▁பிறகு	-9.56678
▁పంపిస్తున్నారు	-9.56688
▁முதல்தர	-9.56729
▁ఆంధ్ర	-9.5674
▁त्यांना	-9.56807
▁&	-9.56827
१९	-9.56836
৩	-9.56837
on	-9.56947
प्र	-9.57082
▁তাঁর	-9.57163
▁27	-9.5721
▁समाज	-9.57241
▁தர	-9.5725
▁இருப்பினும்	-9.57255
▁మొదటి	-9.57316
లోపు	-9.57316
बी	-9.57361
▁विचार	-9.57373
্	-9.57394
L	-9.57431
తా	-9.57599
▁সম্পর্কে	-9.57673
ప్	-9.57697
▁జరిగిన	-9.57747
▁கலை	-9.57769
िका	-9.57793
O	-9.57856
▁रंग	-9.57867
नि	-9.57982
▁হলে	-9.57995
কো	-9.58053
கோ	-9.58095
▁অন্তর্ভুক্ত	-9.581
▁ব্যবস্থা	-9.58424
▁सेवा	-9.58479
▁প্রাচীন	-9.58486
▁செய்து	-9.58662
১৮	-9.58667
▁गावात	-9.58731
పల్లి	-9.58787
▁పాలీటెక్నిక్‌లు	-9.58848
▁উল্লেখ	-9.58908
▁তিন	-9.59062
ள	-9.59101
▁கல்வி	-9.59103
▁from	-9.59107
▁ফুটবল	-9.59122
▁তাই	-9.59196
▁कमी	-9.59204
ிலும்	-9.59294
▁அவர்கள்	-9.59308
▁இசை	-9.59613
▁மிக	-9.59644
▁తోటలు	-9.59655
म्	-9.59689
থ	-9.5972
▁১১	-9.59758
▁விட	-9.59795
▁எம்	-9.59849
రో	-9.59896
▁இதில்	-9.5991
▁சேர்ந்த	-9.59949
▁सं	-9.59953
▁మొత్తం	-9.59978
ির	-9.6007
▁২০১১	-9.60158
▁आज	-9.60372
▁శాలలో	-9.60451
▁சென்னை	-9.60471
▁0.	-9.6061
जा	-9.60709
▁దుకాణం	-9.60859
▁ఎస్	-9.60965
▁ধর্ম	-9.61014
▁ஆவார்	-9.61019
रो	-9.61051
▁বর্তমান	-9.61085
▁वाली	-9.61087
▁ఆఫ్	-9.61155
="	-9.61188
లతో	-9.61209
ాలి	-9.61214
তম	-9.61225
को	-9.61284
யோ	-9.61302
▁मधील	-9.6133
▁স্কুল	-9.61398
▁মার্চ	-9.61412
गा	-9.61486
तो	-9.61544
▁লেখক	-9.61555
তি	-9.61597
▁लेखक	-9.61699
వు	-9.61702
ண	-9.61828
ओ	-9.61865
▁অঞ্চলে	-9.62005
▁पास	-9.62143
▁పా	-9.62167
ation	-9.62202
▁కె	-9.62207
▁ந	-9.62236
▁উল্লেখযোগ্য	-9.6224
▁শ্রেষ্ঠ	-9.62311
ான்	-9.62328
ల్లో	-9.62348
le	-9.62357
or	-9.62378
www	-9.62442
▁মুসলিম	-9.62491
▁సాగవుతున్న	-9.62539
▁पूर्ण	-9.62581
▁బ	-9.62704
▁মহিলা	-9.62935
చి	-9.62938
▁கீழ்	-9.63016
த்தி	-9.63016
▁शिव	-9.63018
▁एका	-9.63062
সে	-9.63134
নে	-9.63135
▁তথ্য	-9.63145
▁इसी	-9.63154
▁வெற்றி	-9.63154
▁V	-9.63162
साठी	-9.63242
▁பற்றிய	-9.63267
W	-9.6329
▁ప్ర	-9.63321
पी	-9.63328
▁காரணமாக	-9.63351
▁कहते	-9.63362
▁আইন	-9.63408
▁ఇక్కడ	-9.63536
▁सकते	-9.63618
গুলোর	-9.63638
▁நாள்	-9.63803
▁এছাড়া	-9.63818
्या	-9.63834
▁রাজনৈতিক	-9.63861
▁পরিচালক	-9.63893
▁प्रत्येक	-9.63929
▁2004	-9.63959
▁ 	-9.63981
▁इसमें	-9.64062
▁ప	-9.64114
▁தொடர்ந்து	-9.64176
বার	-9.64186
▁அன்று	-9.64203
▁बना	-9.64205
రావు	-9.64232
లే	-9.64266
కో	-9.64276
▁Airport	-9.64366
கை	-9.64477
▁தான்	-9.64613
▁হিন্দু	-9.64634
▁পান	-9.64671
జి	-9.64736
டை	-9.64738
▁கை	-9.6474
▁টেস্ট	-9.6484
▁తాగునీరు	-9.64855
▁पश्चिम	-9.64898
il	-9.64924
▁1,	-9.65018
▁अंतरावर	-9.65104
▁p	-9.65111
▁இவரது	-9.6512
▁माना	-9.65128
▁अब	-9.6513
▁जे	-9.6515
▁যিনি	-9.65164
హ	-9.65193
▁विज्ञान	-9.65199
▁নির্মাণ	-9.65297
▁विभाग	-9.65331
సా	-9.65339
কি	-9.65364
▁मार्ग	-9.65392
களுடன்	-9.65406
▁करती	-9.65412
▁is	-9.65426
தை	-9.65444
▁পড়ে	-9.65461
▁১৩	-9.65524
யர்	-9.65634
▁सदस्य	-9.65762
▁साल	-9.65794
▁ইত্যাদি	-9.65902
▁s	-9.6596
▁इतर	-9.66006
▁అంటారు	-9.66032
▁जास्त	-9.6619
▁পরবর্তীতে	-9.66194
▁ना	-9.66225
வ்	-9.66278
▁বিখ্যাত	-9.66282
▁জয়	-9.66479
▁दे	-9.6654
க்கள்	-9.66563
▁स्टेशन	-9.66585
▁పోతున్నాయి	-9.66659
▁பூ	-9.66864
▁জীবন	-9.67002
▁४	-9.67101
▁৭	-9.67156
ச்சி	-9.67173
▁সৃষ্টি	-9.67209
▁রাজ্য	-9.67252
▁আই	-9.67348
▁শব্দ	-9.67363
வன்	-9.67373
▁பொருள்	-9.67373
बा	-9.67453
ரு	-9.67471
ic	-9.67472
ड़	-9.67517
గ్	-9.67612
▁இரண்டாம்	-9.67664
▁அமைப்பு	-9.67811
▁அளவு	-9.67845
க்காரர்	-9.68051
▁২০১০	-9.68059
৪	-9.68128
▁राजधानी	-9.68151
▁উ	-9.68193
ur	-9.68288
▁१७	-9.68326
▁বহু	-9.68406
▁সেখানে	-9.68442
বে	-9.68503
▁উপ	-9.68528
▁ఓ	-9.68563
▁அணியின்	-9.68569
স্ট	-9.68595
▁এলাকা	-9.68599
ட்டி	-9.68755
▁জনসংখ্যা	-9.68778
▁మట్టిరోడ్లూ	-9.68795
▁చేసి	-9.68917
பு	-9.68917
▁বে	-9.68963
▁இன்	-9.69107
వే	-9.69144
▁மனித	-9.69154
▁घर	-9.69159
▁जिला	-9.69269
▁মূলত	-9.69329
খ	-9.69387
▁ஒவ்வொரு	-9.69458
▁৮	-9.69622
▁হত	-9.69647
▁মানুষ	-9.69649
▁গড়ে	-9.6965
▁రా	-9.69685
▁মানুষের	-9.69897
▁অথবা	-9.70011
▁மட்டுமே	-9.70015
ిక	-9.70051
▁शिक्षण	-9.70063
য়ার	-9.70077
▁సం	-9.70156
▁ము	-9.70189
▁गो	-9.70267
▁இட	-9.70301
▁तब	-9.70535
दार	-9.70541
ఎస్	-9.70544
ভি	-9.70583
▁పై	-9.70589
▁তিনটি	-9.7065
▁केवल	-9.70677
an	-9.70744
▁हर	-9.70751
রো	-9.70798
ద్	-9.70846
▁येथील	-9.70882
▁उच्च	-9.70905
▁29	-9.70945
াল	-9.70952
▁ती	-9.71007
x	-9.71044
▁शिक्षा	-9.71091
▁पुस्तक	-9.71127
▁পরিচালিত	-9.71234
▁తమ	-9.71239
▁अपना	-9.71259
़	-9.71324
▁மற்ற	-9.71337
▁শিক্ষার্থী	-9.71385
▁বাংলাদেশী	-9.71417
▁आपल्या	-9.7144
▁দেয়া	-9.71565
▁दूर	-9.71574
▁आधार	-9.71718
▁ஓ	-9.7187
மீ	-9.71878
▁విశాఖపట్నం	-9.71893
সমূহ	-9.71904
▁করতেন	-9.71934
জন	-9.71958
▁যুক্ত	-9.7204
▁অঞ্চলের	-9.72065
▁विभिन्न	-9.72156
ांत	-9.72164
ामध्ये	-9.72165
डा	-9.72274
▁পাকিস্তান	-9.72387
▁এম	-9.72387
▁খুব	-9.72422
▁தா	-9.72515
▁सुरू	-9.72557
▁with	-9.72618
▁In	-9.72635
▁ग्रंथ	-9.72646
▁असलेल्या	-9.727
প্র	-9.72735
▁మే	-9.7275
N	-9.72826
▁संस्था	-9.72867
▁वा	-9.72915
ப்பட்டுள்ளது	-9.72982
போது	-9.72989
▁சார்ந்த	-9.72997
▁মাসে	-9.73067
সের	-9.73085
▁২০	-9.73107
हा	-9.73135
▁2010	-9.7324
ப்பட	-9.73253
▁সারা	-9.73289
h	-9.73294
▁उ	-9.73315
R	-9.73327
▁মতে	-9.73341
▁सामाजिक	-9.73371
▁ডিসেম্বর	-9.73386
▁তারিখে	-9.73393
▁அனைத்து	-9.73485
▁చేయని	-9.73489
▁மீது	-9.73556
வர்கள்	-9.73565
▁ইউনিয়নের	-9.73723
▁अथवा	-9.73732
▁বছরের	-9.73782
▁সর্বোচ্চ	-9.73809
యా	-9.7382
ाई	-9.7383
10	-9.73844
ற	-9.73908
▁చిత్రాలు	-9.73966
▁ఉంటాయి	-9.73995
ति	-9.74022
▁ज्ञान	-9.74031
मान	-9.74066
▁এতে	-9.74105
▁আবার	-9.74252
राज	-9.74307
▁100	-9.74344
▁ধারণা	-9.74419
▁বিশ্বের	-9.74419
▁व्यक्ति	-9.74522
▁भगवान	-9.74566
नाथ	-9.74643
ரே	-9.7465
ினார்	-9.74832
▁பு	-9.74845
గు	-9.74883
▁கொண்டுள்ளார்	-9.74885
▁कला	-9.74917
▁காலத்தில்	-9.74957
▁பணி	-9.75063
▁மாற்ற	-9.75076
▁আধুনিক	-9.75135
▁খ্রিষ্টাব্দে	-9.75147
▁তৃতীয়	-9.75176
20	-9.75199
▁বলেন	-9.752
▁+	-9.75266
▁అవుతోంది	-9.75293
▁महा	-9.75302
ய்	-9.75309
▁త	-9.75322
নো	-9.75327
▁भूमिका	-9.75344
▁वर्ग	-9.75355
▁किलोमीटर	-9.75366
யுடன்	-9.75423
▁নির্মিত	-9.75444
▁2000	-9.75468
एं	-9.7548
▁తర్వాత	-9.75483
▁কিলোমিটার	-9.75602
ாத	-9.75651
▁c	-9.75687
▁ఏర్పాటు	-9.75695
▁अशा	-9.75747
মান	-9.7585
▁ह	-9.75902
▁நீர்	-9.75926
▁গঠন	-9.75931
▁அடி	-9.75984
V	-9.75988
▁தமிழ்நாடு	-9.76013
▁নদীর	-9.76048
▁பெண்	-9.76052
▁জনপ্রিয়	-9.76066
రాజు	-9.76084
▁জুন	-9.76104
▁নিউ	-9.76112
▁पण	-9.76113
▁நான்கு	-9.7615
டா	-9.76164
யானது	-9.76167
▁বিজ্ঞান	-9.76187
▁बस	-9.76226
▁उनका	-9.7625
▁গান	-9.7632
▁যেতে	-9.76402
க்கான	-9.76589
▁স্থানীয়	-9.76639
▁ला	-9.76679
யாகும்	-9.76696
▁ఆంధ్రప్రదేశ్	-9.76732
ठ	-9.76749
தால்	-9.7681
▁असतात	-9.76917
▁ঐ	-9.77012
▁च्या	-9.77172
▁जिले	-9.77194
▁போட்டிகளிலும்	-9.77224
மாகும்	-9.77311
▁गाव	-9.77364
u	-9.77371
टा	-9.77427
வோ	-9.77495
யைக்	-9.77706
▁सन	-9.77737
▁কবি	-9.7774
▁प्रभाव	-9.77763
కే	-9.77805
ானது	-9.77825
▁रेलवे	-9.77858
▁ஆறு	-9.7793
▁আসে	-9.77959
▁வரும்	-9.78015
▁குறிப்பிட்ட	-9.78084
झ	-9.78109
▁J	-9.78178
▁কু	-9.78228
▁பொது	-9.78355
▁de	-9.78449
▁পরিবর্তন	-9.78524
v	-9.78556
▁अलग	-9.78585
पर	-9.78822
▁ஈ	-9.78919
▁మహబూబ్	-9.78952
▁பகுதியில்	-9.78979
▁१५	-9.79006
ar	-9.79107
▁पक्ष	-9.79129
▁प्रकाशित	-9.79171
▁అతని	-9.79181
▁বিপক্ষে	-9.79189
▁৯	-9.79195
▁நா	-9.79224
राव	-9.79243
▁అతను	-9.79275
ிற்கு	-9.79313
▁लेख	-9.79335
ிலிருந்து	-9.79456
ோ	-9.79615
▁31	-9.79777
▁ইসলাম	-9.7985
▁भर	-9.79878
মে	-9.79891
▁गेले	-9.80023
▁দু	-9.80054
▁जिसे	-9.80054
एँ	-9.80087
ాలలో	-9.80102
হা	-9.80113
▁ইংরেজি	-9.80178
▁வழி	-9.8024
▁পরিচালনা	-9.80244
బ	-9.80327
▁மீண்டும்	-9.80339
▁रे	-9.80356
রে	-9.80402
▁!	-9.80453
యు	-9.80457
িয়ে	-9.80483
org	-9.80506
పల్లిలో	-9.80524
▁जाना	-9.8056
গা	-9.80563
ுள்ள	-9.80582
सं	-9.80596
▁নেন	-9.8061
▁চার	-9.80613
ஜி	-9.80745
‌లో	-9.80748
▁মৃত্যু	-9.80758
▁पाकिस्तान	-9.80762
▁লোক	-9.80842
లీ	-9.8092
▁विषय	-9.80946
▁জুলাই	-9.80982
বিশ্ববিদ্যালয়ের	-9.80992
▁परंतु	-9.81004
▁ஒரே	-9.81076
▁రచన	-9.81105
▁লা	-9.81124
வில்லை	-9.8113
టం	-9.81134
▁వరి	-9.81136
▁சிறு	-9.81395
யால்	-9.81507
▁প্রতিষ্ঠা	-9.81552
भ	-9.8156
▁కాని	-9.81613
▁హ	-9.81668
▁பெரும்	-9.81676
▁సు	-9.81877
லோ	-9.81904
▁आई	-9.81924
ைக்	-9.81926
▁వద్ద	-9.81951
▁కొ	-9.81955
நிலை	-9.82004
▁पी	-9.82064
▁২০১২	-9.82107
▁এপ্রিল	-9.82162
▁என்	-9.82232
రే	-9.82268
▁University	-9.82304
▁दिवस	-9.82305
▁কলকাতা	-9.82318
▁मृत्यू	-9.82331
▁विविध	-9.82466
पा	-9.82472
▁दौरान	-9.82487
▁बे	-9.82567
▁उसकी	-9.82618
▁बी	-9.8272
▁பற்றி	-9.82839
৬	-9.82859
▁রাজধানী	-9.82874
▁বিভাগে	-9.82901
▁ভারতে	-9.82969
▁রাষ্ট্র	-9.82998
▁मार्च	-9.83049
▁সেরা	-9.83146
ीत	-9.83149
▁१६	-9.83158
▁நோய்	-9.83206
கம்	-9.83213
▁வ	-9.8324
গত	-9.83329
▁নির্বাচিত	-9.83357
▁কো	-9.83401
▁কয়েকটি	-9.83442
▁रही	-9.83452
০	-9.83459
మని	-9.8346
▁पुणे	-9.83485
▁संयुक्त	-9.83543
▁মাত্র	-9.83569
▁সংস্থা	-9.83602
দি	-9.8365
▁ஆண்டுகளில்	-9.83651
▁नाटक	-9.8368
▁போ	-9.83717
ः	-9.83804
▁உருவாக்க	-9.8382
▁గ	-9.83833
▁২০১৪	-9.83867
ுடன்	-9.83912
▁जून	-9.83913
▁గురించి	-9.8406
దా	-9.84193
▁ఆలయం	-9.84241
▁ప్రపంచ	-9.84259
▁শিল্প	-9.84298
▁அரச	-9.84305
▁গবেষণা	-9.84494
▁முன்	-9.84534
▁लोकसभा	-9.84537
▁ज	-9.84665
று	-9.84765
▁அமைந்துள்ளது	-9.84828
▁বর্ণনা	-9.84833
ండి	-9.84847
▁पि	-9.84881
టు	-9.8501
▁मु	-9.85027
||	-9.85044
▁त्यांचे	-9.85161
னோ	-9.85162
▁বিষয়ে	-9.85192
▁২০০১	-9.85198
களிலும்	-9.85209
▁లెక్కల	-9.853
▁विश्वविद्यालय	-9.85321
7	-9.85402
▁যুক্তরাষ্ট্রের	-9.85415
▁ஆய்வு	-9.85422
▁शरीर	-9.85449
▁খেলায়	-9.8545
மன்	-9.85486
▁డి	-9.85509
▁জন্মগ্রহণ	-9.85543
▁ख	-9.85602
▁ஒ	-9.85668
▁জানুয়ারি	-9.8577
▁కథ	-9.85772
தான்	-9.85778
অ	-9.85872
▁সামরিক	-9.85912
▁१२	-9.85915
▁জি	-9.85936
▁গ	-9.85945
w	-9.86026
▁রে	-9.86105
▁అయిన	-9.86146
నూ	-9.86152
▁దక్షిణ	-9.86263
্স	-9.86292
▁নভেম্বর	-9.86357
▁লি	-9.86369
मे	-9.86381
▁নেই	-9.86387
▁జ	-9.86393
▁இதனால்	-9.86394
▁ప్రభుత్వం	-9.86454
▁उन	-9.86512
is	-9.86514
१	-9.86572
ప్ప	-9.86588
▁রূপ	-9.86627
▁অক্টোবর	-9.86662
▁O	-9.86664
ష	-9.86676
▁చ	-9.86707
▁হাজার	-9.86712
▁స్	-9.86733
el	-9.86767
▁বৃদ্ধি	-9.86776
▁সম্পর্ক	-9.86847
▁থাকেন	-9.86885
▁জে	-9.86901
पासून	-9.86942
वीं	-9.86948
▁ఉత్తర	-9.87016
▁பாடல்	-9.87077
▁६	-9.87097
গণ	-9.87117
▁মন্দির	-9.87176
गो	-9.87178
ंच्या	-9.87202
▁मूल	-9.87235
▁যুদ্ধে	-9.87285
▁వలన	-9.87286
▁உற்பத்தி	-9.87338
▁మె	-9.87408
▁বিভাগ	-9.87418
▁அக்டோபர்	-9.87479
▁संस्कृत	-9.87519
ாமல்	-9.87521
डे	-9.87534
तात	-9.87642
ுகிறது	-9.87671
▁অংশগ্রহণ	-9.87731
▁जातो	-9.87766
▁অ্যান্ড	-9.87796
ையும்	-9.87865
▁সাহিত্য	-9.88046
ியது	-9.8808
▁ফেব্রুয়ারি	-9.88126
చే	-9.88238
▁இன	-9.88365
নার	-9.88378
ணி	-9.88425
▁যদি	-9.88439
▁ब्रिटिश	-9.88477
▁Re	-9.88526
▁இந்தியாவின்	-9.8855
▁வட	-9.88587
▁মিটার	-9.88667
லின்	-9.88712
▁కానీ	-9.88724
▁బా	-9.88796
▁যারা	-9.88802
ண்டு	-9.88851
▁লেখা	-9.88856
▁शासन	-9.88877
கே	-9.88878
▁নিজের	-9.88903
▁పార్టీ	-9.88908
▁సిబ్బంద	-9.88922
▁சமூக	-9.88937
▁মান	-9.8894
▁বল	-9.8899
டோ	-9.8902
యి	-9.89041
▁महिला	-9.89053
li	-9.89139
▁సంగీత	-9.89157
▁সঙ্গীত	-9.89199
▁నాలుగు	-9.8922
▁होतो	-9.89224
த்துக்கு	-9.8925
▁২০০৮	-9.89266
▁మహా	-9.8936
వారు	-9.89363
▁अमेरिका	-9.89389
▁வர	-9.89417
ad	-9.89441
▁यांना	-9.89445
▁সেপ্টেম্বর	-9.89457
▁कंपनी	-9.8948
▁மேல்	-9.89501
▁मतदारसंघ	-9.89533
▁நூல்	-9.89558
▁২০১৩	-9.89602
▁தொகுதி	-9.89655
▁পাশাপাশি	-9.89693
▁শক্তি	-9.89773
▁मा	-9.89786
কাল	-9.8991
▁হা	-9.89916
वाद	-9.89919
व्या	-9.89933
▁படி	-9.89959
▁त्याच्या	-9.89966
▁মু	-9.89972
▁सि	-9.90048
▁తూర్పు	-9.90216
णी	-9.90221
யைப்	-9.90236
▁कुल	-9.90237
▁மாவட்ட	-9.90297
▁துணை	-9.90311
▁सन्	-9.90365
▁f	-9.90365
▁বিমান	-9.90384
8	-9.90411
ँ	-9.90426
पूर	-9.90447
▁क्योंकि	-9.90452
▁किमी	-9.90472
▁বিশ্বাস	-9.90475
ेश्वर	-9.90519
▁ভূমিকা	-9.90552
▁পরবর্তী	-9.90575
id	-9.90606
▁சிறிய	-9.90655
▁இல்லை	-9.90679
▁பொ	-9.90686
▁பெற	-9.90763
उ	-9.90811
৷	-9.90908
▁वापर	-9.90929
▁పాలీటెక్నిక్‌	-9.91157
ীর	-9.91173
▁பேர்	-9.91357
▁எண்	-9.91374
▁2003	-9.91375
▁दर	-9.91397
జా	-9.91449
গো	-9.91486
▁துறை	-9.91496
▁భారతీయ	-9.91517
▁শাহ	-9.91585
▁ব	-9.91646
▁అన్ని	-9.91665
▁আগস্ট	-9.91755
▁as	-9.91795
▁கட்சி	-9.91806
▁அரசியல்	-9.91843
▁म्हणतात	-9.91844
▁নেয়	-9.91883
▁সরকারের	-9.91919
▁विधानसभा	-9.91943
▁వల్ల	-9.91951
▁అది	-9.92049
ளி	-9.92073
ातून	-9.92084
ांमध्ये	-9.92128
క్క	-9.92164
▁रचना	-9.92236
▁স্থানে	-9.92279
▁మన	-9.92313
▁চট্টগ্রাম	-9.9239
▁সদর	-9.9247
▁असतो	-9.92545
ுவது	-9.92583
▁একে	-9.92643
▁ইতিহাস	-9.9266
▁நூற்றாண்டு	-9.92698
▁প্রভাব	-9.92705
ক্স	-9.92726
▁వచ్చిన	-9.9277
▁ইংরেজ	-9.92805
▁আলী	-9.92811
▁இயக்க	-9.92814
▁পদক	-9.92851
▁मानव	-9.92926
▁இந்தியத்	-9.92932
టీ	-9.92945
▁तयार	-9.92966
யிலிருந்து	-9.93001
▁पद	-9.93037
▁மாநில	-9.93066
▁চলচ্চিত্রে	-9.93122
லே	-9.93162
▁ఆర్	-9.93228
▁आधुनिक	-9.93252
▁গেছে	-9.93324
▁असा	-9.93341
ாகும்	-9.93374
स्	-9.93397
▁किए	-9.93414
▁கொள்ள	-9.93536
▁2013	-9.93545
க்கி	-9.93551
+	-9.9359
▁बा	-9.93592
re	-9.93652
টে	-9.93762
মূলক	-9.93771
▁ది	-9.93779
▁ల	-9.93839
▁স্থাপন	-9.93864
▁চালু	-9.93871
▁টেলিভিশন	-9.93926
▁సమయంలో	-9.93986
▁রচনা	-9.94013
సీ	-9.9407
யிலும்	-9.94108
▁New	-9.94118
▁वाला	-9.94118
యం	-9.94184
▁বাঙালি	-9.94231
▁आली	-9.9426
యో	-9.94373
",	-9.94405
▁देवी	-9.94504
▁சட்ட	-9.94551
▁ভাগ	-9.94551
▁জানা	-9.94638
த்திலும்	-9.94638
ప్ర	-9.9464
ஆ	-9.94654
25	-9.9472
▁ஆட்சி	-9.9478
▁जवळील	-9.94887
கர்	-9.95013
▁60	-9.9502
টার	-9.95083
▁ఐ	-9.95139
▁2012	-9.9515
▁७	-9.952
▁கோயில்	-9.95206
কু	-9.95215
▁பட	-9.95231
ै	-9.95286
man	-9.95306
▁போட்டியில்	-9.95392
৭	-9.95418
ंचा	-9.95488
▁http	-9.95501
▁రాజు	-9.95538
▁বাংলাদেশে	-9.9556
▁জার্মান	-9.95581
एस	-9.95583
9	-9.95589
▁चाहिए	-9.95617
▁यांचे	-9.95657
▁मन	-9.95736
▁বাস	-9.95763
▁2022	-9.95767
▁మంచి	-9.9577
▁நாடு	-9.95835
°	-9.9587
▁பெற்றார்	-9.95917
▁పో	-9.95951
▁जिल्ह्यातील	-9.96018
▁আরব	-9.96079
▁ক্ষমতা	-9.96086
ாலும்	-9.96131
▁बड़े	-9.96152
▁बाल	-9.96167
তো	-9.96168
▁প্রতিষ্ঠান	-9.96203
▁सर	-9.96212
▁re	-9.96214
ஷ்	-9.96265
▁प्रदान	-9.96296
▁படை	-9.96298
▁கூட	-9.9635
it	-9.96364
I	-9.96367
▁রান	-9.96373
▁நகர	-9.96438
▁பே	-9.96546
தர	-9.96548
▁దీని	-9.96592
▁পুত্র	-9.96628
um	-9.96645
▁মহা	-9.96664
▁রাখা	-9.96701
বাদ	-9.96705
ুল	-9.96739
தே	-9.96759
15	-9.96764
மானது	-9.96872
▁बदल	-9.96883
▁1990	-9.96956
▁शुरू	-9.96958
▁இடம்	-9.96987
▁மெ	-9.96992
▁போட்டியிலும்	-9.97071
देव	-9.97073
▁জনসংখ্যার	-9.97095
வர	-9.97144
স্	-9.97167
ிருந்த	-9.9727
▁or	-9.97277
▁2002	-9.97286
▁রহমান	-9.97309
ta	-9.9733
18	-9.97346
য়ের	-9.97412
▁बड़ा	-9.97435
▁కొత్త	-9.97442
▁হলেও	-9.9746
▁నీ	-9.97463
शा	-9.97505
▁చిత్రం	-9.97546
▁பிர	-9.97556
டர்	-9.97651
▁ফিরে	-9.97651
▁শিক্ষক	-9.97689
ிருக்கும்	-9.97693
▁இலக்கிய	-9.97777
▁২০১৫	-9.97821
টিকে	-9.97836
ண்ட	-9.97861
z	-9.97888
30	-9.98018
▁अशी	-9.981
▁ক্লাব	-9.98159
▁দশকের	-9.9816
▁பங்குகொண்டார்	-9.98169
▁जन	-9.98191
▁करतात	-9.98198
▁ক্যা	-9.98227
மோ	-9.98237
▁सूर्य	-9.9835
▁बात	-9.98372
ற்	-9.9838
▁কোম্পানি	-9.98472
२	-9.98503
ించి	-9.9852
▁కిలోమీటర్ల	-9.98544
▁அதே	-9.98568
றி	-9.98584
▁దాని	-9.98617
▁২০শ	-9.98689
>	-9.98712
▁நவம்பர்	-9.98712
▁செய்த	-9.98794
▁காலம்	-9.98801
▁বিভাগের	-9.98819
▁పేరుతో	-9.9882
▁গড়	-9.9884
०	-9.989
▁মাঝে	-9.98929
▁சிறப்பு	-9.98957
▁பெ	-9.99055
▁గో	-9.99096
నో	-9.9911
బాలబడి	-9.99176
स्ट	-9.99178
▁ইন	-9.99195
పా	-9.99247
▁Press	-9.99283
J	-9.99333
ion	-9.99372
মো	-9.99399
▁महत्वपूर्ण	-9.99415
▁রাজনীতিবিদ	-9.99471
▁नामक	-9.99518
▁मान	-9.99576
▁మాత్రమే	-9.99582
▁కృష్ణ	-9.99668
ंची	-9.99705
▁कै	-9.99708
▁साम्राज्य	-9.99736
▁यात्रा	-9.99754
▁कोड	-9.99781
சை	-9.99803
▁অধীনে	-9.99855
ట్లు	-9.99916
▁;	-9.99917
▁35	-9.99921
▁జి	-9.99931
▁போல	-10.0001
ইন	-10.0007
▁பட்ட	-10.0015
▁पुत्र	-10.0025
▁கொ	-10.0025
ள்	-10.0034
▁आम	-10.0041
▁నగర్	-10.0049
▁मो	-10.0057
ட்ட	-10.0059
▁உயர்	-10.0062
▁বই	-10.0064
ியல்	-10.0068
ండ	-10.0068
▁இந்தியா	-10.0069
▁রি	-10.0069
▁எந்தவொரு	-10.0071
▁শহরে	-10.0074
▁স্ত্রী	-10.0075
మో	-10.008
களுக்கும்	-10.0081
ஏ	-10.0084
ண்	-10.0085
▁ভাই	-10.0089
▁ఎం	-10.0089
▁கார்	-10.009
▁राष्ट्र	-10.0093
,000	-10.0094
at	-10.0095
▁বিশিষ্ট	-10.0096
▁থেকেই	-10.0096
▁৩০	-10.0097
▁நில	-10.0099
▁सब	-10.01
పో	-10.0105
▁आला	-10.0105
ia	-10.0106
నది	-10.011
▁మి	-10.011
ఒక	-10.0114
படி	-10.0117
▁दूसरे	-10.0126
▁స్త్రీల	-10.013
▁சோ	-10.0139
ড়া	-10.014
▁দিক	-10.0142
কৃত	-10.0142
ত্ব	-10.0142
▁b	-10.0144
▁अध्ययन	-10.0147
▁स्थापित	-10.0149
▁খেলা	-10.0151
▁बौद्ध	-10.0151
ায়	-10.0154
▁செல்ல	-10.0155
▁विजय	-10.0156
▁பல்கலைக்கழக	-10.0156
45	-10.0165
▁ভিত্তি	-10.0169
▁এলাকায়	-10.0175
▁कभी	-10.0178
‍	-10.0181
க்கூடிய	-10.0183
▁ప్రముఖ	-10.0186
▁যাতে	-10.0187
—	-10.019
ra	-10.0191
ুর	-10.0199
▁అను	-10.0214
▁সামাজিক	-10.0217
▁लाल	-10.0217
▁এটা	-10.0218
జీ	-10.0245
ங்களுக்கு	-10.025
▁முடியும்	-10.0251
ష్	-10.0254
▁काळात	-10.0255
▁২০০৯	-10.0255
னார்	-10.026
▁प्रकाश	-10.0267
U	-10.0268
▁संत	-10.0268
விட	-10.0268
ప్రైవేటు	-10.0274
▁পক্ষে	-10.0279
▁पार	-10.0281
▁डी	-10.0284
ीकरण	-10.0287
▁தீ	-10.0292
▁रेल्वे	-10.0293
ंद	-10.0297
▁लाख	-10.0298
ंना	-10.0304
ंट	-10.0305
బడింది	-10.0306
ন্ত	-10.0306
পো	-10.0306
▁श	-10.032
▁కాలంలో	-10.0323
▁মৃত্যুর	-10.0323
▁ইউ	-10.0325
▁আক্রমণ	-10.0326
ওয়া	-10.0328
▁வணிக	-10.0328
৮	-10.0329
▁అయితే	-10.0339
யையும்	-10.0342
▁తండ్రి	-10.0345
▁লাল	-10.0346
▁নির্দিষ্ট	-10.0349
▁পরিণত	-10.0356
▁కాకుండా	-10.0358
ంతో	-10.0358
▁যুদ্ধের	-10.0359
▁சேவை	-10.0359
▁ধর্মীয়	-10.0364
செ	-10.0364
দার	-10.0369
ంత	-10.0376
▁होत	-10.0379
▁செப்டம்பர்	-10.0381
▁भारताच्या	-10.0381
▁దీనిని	-10.0381
▁గల	-10.0383
▁নামের	-10.0383
▁கதை	-10.0384
▁எந்த	-10.0385
▁न्यू	-10.039
కం	-10.0392
▁చేయ	-10.0398
ভা	-10.0405
ंचे	-10.0408
लि	-10.0408
▁চলচ্চিত্রের	-10.0415
ழ	-10.0416
▁पुरुष	-10.0418
▁हिंदू	-10.0425
▁చిత్ర	-10.0429
▁నివాస	-10.0429
தில்	-10.0433
ంది	-10.0434
తు	-10.0434
బా	-10.0436
▁அறிவியல்	-10.0437
▁আসেন	-10.0437
ne	-10.044
க்கா	-10.044
தன்	-10.0445
▁రాజకీయ	-10.0446
▁அளவில்	-10.0453
▁आर्थिक	-10.0455
▁ஹ	-10.0459
फ़	-10.0459
▁நிறுவனம்	-10.0462
ছে	-10.0467
▁संस्थान	-10.047
▁মিলিয়ন	-10.048
▁மலை	-10.0482
ौ	-10.0486
▁ফরাসি	-10.0486
களுக்கான	-10.0487
▁পদ্ধতি	-10.049
ాలకు	-10.0492
▁ঘটনা	-10.0494
▁आंतरराष्ट्रीय	-10.0495
▁पा	-10.0502
▁जिसके	-10.0508
टे	-10.0509
▁यदि	-10.0519
ரும்	-10.0521
▁২০০৭	-10.0523
ार	-10.0531
▁बि	-10.0533
ோர்	-10.0535
▁আরো	-10.0537
▁1980	-10.0539
▁शताब्दी	-10.0542
▁தொழில்	-10.0545
▁হে	-10.0546
▁लगा	-10.0547
▁देता	-10.0549
▁८	-10.0552
▁এরা	-10.0553
த்துடன்	-10.0556
முறை	-10.0558
ினால்	-10.0562
ఆ	-10.0568
▁আন্দোলন	-10.0568
▁విజయనగరం	-10.0569
▁सामान्य	-10.057
ंनी	-10.0572
▁आता	-10.0575
కె	-10.0576
▁মি	-10.0577
▁पिता	-10.0578
▁உண்டு	-10.0578
▁ऐसा	-10.0579
▁என்பவர்	-10.0582
ఆర్	-10.059
▁து	-10.0591
ுவதற்கு	-10.0595
ियाँ	-10.0599
▁सकती	-10.0606
సంవత్సరం	-10.0609
▁தலைவர்	-10.061
मो	-10.0612
▁ஆகியவை	-10.0616
▁n	-10.0617
ண்ட்	-10.0618
ించ	-10.0623
▁రాజ	-10.0623
▁वो	-10.063
▁ছাত্র	-10.0633
▁दर्शन	-10.0633
▁எனினும்	-10.0634
▁32	-10.0637
▁பெண்கள்	-10.0639
लेल्या	-10.0641
र्स	-10.0642
▁পাকিস্তানের	-10.0645
▁उसका	-10.0648
▁U	-10.0651
▁মুক্তি	-10.066
क्स	-10.0663
▁ইবনে	-10.0665
▁రోజు	-10.0668
▁११	-10.067
▁१४	-10.0672
▁गा	-10.0678
राम	-10.068
▁कृष्ण	-10.0686
▁रोग	-10.0689
▁India	-10.0691
▁च	-10.0692
▁ঐতিহাসিক	-10.0694
▁వీరు	-10.07
▁ప్రదేశ్	-10.0703
யம்	-10.0703
▁ఖమ్మం	-10.0709
▁రామ	-10.0713
▁உணவு	-10.0717
িন	-10.0722
▁இருக்கிறது	-10.073
▁হওয়া	-10.073
▁வேறு	-10.0736
▁बनाया	-10.0738
▁ஒளி	-10.0743
▁कथा	-10.0747
ுகின்றன	-10.0749
த்திலிருந்து	-10.0754
▁சே	-10.0754
▁बड़ी	-10.0755
లేదు	-10.0758
▁ল	-10.0762
14	-10.0766
▁வெளி	-10.0766
▁अधिकार	-10.0766
▁मात्र	-10.0768
▁भारतातील	-10.0772
నం	-10.0776
▁২০০৬	-10.0779
▁রেকর্ড	-10.078
▁ప్రజలు	-10.0782
▁हम	-10.0784
সন	-10.0787
ப்பா	-10.079
▁সমস্ত	-10.0798
▁দি	-10.0803
▁https	-10.0807
ri	-10.0808
लो	-10.081
த்தா	-10.081
న్‌	-10.0811
▁1999	-10.0814
க்காக	-10.0817
te	-10.0818
▁মো	-10.0819
ுள்ளார்	-10.0819
▁गांधी	-10.082
শি	-10.0821
मन	-10.0821
▁స్వామి	-10.0824
▁वन	-10.0825
▁রাম	-10.0827
పాడు	-10.0831
▁வா	-10.0834
▁बल	-10.0834
▁বিষয়	-10.0834
▁শেখ	-10.0835
ர்கள்	-10.0839
▁ভি	-10.0841
সু	-10.0843
▁समान	-10.0843
▁குறைந்த	-10.0845
▁கொண்டது	-10.0848
▁அமைந்துள்ள	-10.085
▁उत्पन्न	-10.0853
▁வளர்ச்சி	-10.0856
▁अध्यक्ष	-10.0856
ॅ	-10.0865
त्व	-10.087
লার	-10.0872
టా	-10.0878
▁வேலை	-10.0883
गी	-10.0885
▁সাবেক	-10.0885
▁স্	-10.0886
த்தைக்	-10.0886
▁আমেরিকান	-10.0887
যুক্ত	-10.0892
্‌	-10.0896
▁প্রচলিত	-10.0897
▁চরিত্রে	-10.0899
▁দেশে	-10.0901
▁मृत्यु	-10.0903
▁குழு	-10.0908
బ్	-10.0914
▁कुमार	-10.0923
ఫ్	-10.0931
▁বয়সে	-10.0938
▁जिसका	-10.0938
త్త	-10.0945
▁45	-10.0946
▁उत्पादन	-10.0947
▁చేశారు	-10.095
▁தந்தை	-10.0954
▁மின்	-10.0956
Y	-10.0957
ச்ச	-10.0967
▁தற்போது	-10.0969
ফা	-10.0976
%,	-10.0976
▁பெரும்பாலும்	-10.0977
▁மாவட்டத்தில்	-10.0979
ক্ষ	-10.0988
డా	-10.0988
▁सात	-10.0993
ె	-10.0998
▁রাষ্ট্রপতি	-10.0998
40	-10.1
24	-10.1002
▁आकार	-10.1002
▁वर्णन	-10.1003
শে	-10.1004
▁अनु	-10.1007
un	-10.1007
জন্ম	-10.1009
▁வழங்க	-10.101
▁रि	-10.1013
మును	-10.1023
ాలని	-10.1023
రం	-10.1024
ఇది	-10.1029
▁కో	-10.1034
ড়	-10.1037
▁চা	-10.1038
):	-10.1038
▁হাতে	-10.1038
▁গ্রাম	-10.1039
ళ్ళ	-10.1041
▁தொகை	-10.1042
▁विवाह	-10.1046
▁घटना	-10.105
▁संबंध	-10.1051
▁చెప్ప	-10.1058
ये	-10.1058
▁ऐसे	-10.1067
कडे	-10.107
த்தால்	-10.1071
▁குறிப்பிட	-10.1074
▁आप	-10.108
▁எழுதிய	-10.109
▁கூடிய	-10.109
▁கல்லூரி	-10.1091
23	-10.1092
▁মাস	-10.1094
▁सीमा	-10.1094
▁রচিত	-10.1095
ine	-10.1096
▁উন্নয়ন	-10.1097
রু	-10.1104
▁চেয়ে	-10.1107
▁करके	-10.1109
ై	-10.1113
▁২৫	-10.1117
யி	-10.1117
▁प्रवेश	-10.1126
▁பங்கு	-10.1129
खा	-10.1131
ात्मक	-10.1134
కీ	-10.1135
▁మో	-10.1145
▁২০১৬	-10.1165
▁প	-10.1168
ఈ	-10.117
ंत	-10.1171
▁आय	-10.1174
யூ	-10.1174
▁পরিবারের	-10.1175
▁ను	-10.1179
▁দিতে	-10.1184
▁उसने	-10.1187
▁राज्यातील	-10.1187
▁विमान	-10.119
क्ष	-10.1191
মার	-10.1192
னே	-10.1193
த்தையும்	-10.12
▁कार्यक्रम	-10.1201
▁व्या	-10.1203
न्स	-10.1203
The	-10.1204
▁சமய	-10.1206
▁प्रकाशन	-10.1208
▁পে	-10.1212
▁குழந்தை	-10.1215
▁பள்ளி	-10.1222
▁वर्तमान	-10.1224
▁देने	-10.1228
▁মারা	-10.1228
▁চেষ্টা	-10.1229
▁হলেন	-10.1232
ఎ	-10.1233
▁நாடுகள்	-10.1233
ंब	-10.1233
▁২৪	-10.1235
শন	-10.1236
▁২০০০	-10.1239
▁వరంగల్	-10.1242
ंक	-10.1243
▁ஐந்து	-10.1246
▁অর্থাৎ	-10.1249
র্	-10.1251
et	-10.1252
▁பதிப்பு	-10.1255
▁पूर्वी	-10.1257
▁అన్న	-10.1261
रि	-10.1266
▁पहली	-10.1268
▁চৌধুরী	-10.1272
▁রাজ	-10.1274
யு	-10.1279
▁काव्य	-10.128
▁பெற்றது	-10.1283
17	-10.1291
போ	-10.1292
▁ఇవి	-10.1295
எஸ்	-10.1296
▁भा	-10.13
na	-10.1304
▁ट्रेन	-10.1305
▁করলে	-10.1308
ராக	-10.1308
▁வரலாறு	-10.131
जे	-10.1311
।"	-10.1312
ப்பட்டன	-10.1313
▁రచయిత	-10.1316
▁নোবেল	-10.1325
▁रक्त	-10.1329
▁सेना	-10.133
▁जिल्हा	-10.1336
জে	-10.1343
▁डे	-10.1344
▁జా	-10.1347
▁রায়	-10.1351
▁অধিকার	-10.1351
ूर	-10.1355
▁ஏப்ரல்	-10.1362
▁ली	-10.1365
▁தென்	-10.1367
▁समूह	-10.1371
▁సంవత్సరాల	-10.1372
सर	-10.1373
▁கட்ட	-10.1375
▁కల	-10.1376
ப்பி	-10.1382
▁কম্পিউটার	-10.1382
▁மேற்கு	-10.1382
▁लेकर	-10.1383
▁त्यामुळे	-10.1386
▁গ্রন্থ	-10.1387
▁ক্রিকেটে	-10.139
▁১৯৭১	-10.1393
েই	-10.1398
ற்று	-10.1403
▁భాష	-10.1404
ரிய	-10.1404
▁ఇలా	-10.1408
▁கொள்ளவில்லை	-10.141
▁உயிர்	-10.141
▁முதலில்	-10.1416
")	-10.1418
▁माध्यम	-10.1418
न्	-10.142
▁சொல்	-10.1421
▁शोध	-10.1421
▁நிலையில்	-10.143
▁উভয়	-10.1431
▁হত্যা	-10.1431
to	-10.1438
▁ওপর	-10.1446
▁একমাত্র	-10.145
▁उल्लेख	-10.1459
▁একক	-10.1462
▁एम	-10.1472
শা	-10.1472
▁ता	-10.1476
वादी	-10.1476
ைப்	-10.1477
▁मार	-10.1477
हे	-10.148
▁দীর্ঘ	-10.1482
▁హైదరాబాదు	-10.149
▁पदार्थ	-10.1497
▁তৎকালীন	-10.1499
ங்கு	-10.1499
▁आधारित	-10.1503
▁దర్శకత్వం	-10.1508
▁উপন্যাস	-10.151
▁కృష్ణా	-10.1512
▁’	-10.1515
▁चीन	-10.1516
▁బ్రహ్మ	-10.1523
▁பட்டியல்	-10.1525
వస్థీకరణలో	-10.1531
▁प्रेम	-10.1531
▁परिवार	-10.1533
১০	-10.1534
▁गयी	-10.1534
ण्ड	-10.1537
▁சீ	-10.1538
▁बारे	-10.154
▁நி	-10.1546
▁जि	-10.1547
▁त्याने	-10.1548
▁खान	-10.1551
▁ఉ	-10.1552
▁சுமார்	-10.1558
%)	-10.1559
▁कॉलेज	-10.1562
ेल	-10.1563
▁ஜி	-10.1566
▁অবস্থায়	-10.1567
▁ద	-10.1572
▁खेळ	-10.158
▁বৌদ্ধ	-10.1582
as	-10.1585
▁र	-10.1587
▁प्रणाली	-10.159
▁यांचा	-10.1594
▁करणे	-10.1596
▁பரிசு	-10.1596
ষ্ট	-10.1599
50	-10.1601
▁বার	-10.1602
▁बजे	-10.1604
েন	-10.1604
▁ড	-10.1605
▁గోదావరి	-10.1608
▁కలిగిన	-10.1609
▁२०	-10.1609
▁आवश्यक	-10.1612
க்ஸ்	-10.1612
। 	-10.1613
ম্যান	-10.1613
▁என்பதை	-10.1613
▁त्याला	-10.1616
পূর্ব	-10.1619
▁शक्ति	-10.1622
▁উইকেট	-10.1627
▁இந்தப்	-10.1627
▁জল	-10.1637
▁மருத்துவ	-10.1637
▁ஸ்	-10.1638
▁महाराज	-10.1642
▁தனி	-10.1646
▁இவற்றை	-10.1646
িয়ান	-10.1647
உ	-10.1647
ள்ள	-10.166
క్ష	-10.1663
▁குறிப்பிடத்தக்க	-10.1664
ின	-10.1664
▁থাকা	-10.1667
ध	-10.1669
▁बनाने	-10.1675
్లో	-10.1677
▁খেলার	-10.1677
▁শ	-10.1682
▁সম্পূর্ণ	-10.1687
▁மத்திய	-10.1688
▁எனவே	-10.1703
ity	-10.1705
▁மணி	-10.1706
▁পাঁচ	-10.171
লু	-10.171
ములో	-10.1715
▁திகதி	-10.1719
▁सभा	-10.1719
▁கிழக்கு	-10.172
०००	-10.1721
▁नव	-10.1726
▁இலங்கையின்	-10.1728
▁होकर	-10.1731
▁रहता	-10.1731
▁இந்தியாவில்	-10.1732
▁De	-10.1739
চি	-10.174
▁९	-10.1743
▁পদ	-10.1744
▁येते	-10.1745
▁বৃহত্তম	-10.1746
ౌ	-10.1749
▁দশকে	-10.1751
▁पुढे	-10.1752
▁जातात	-10.1752
▁स्थिति	-10.1752
ఇ	-10.1753
र्	-10.1753
26	-10.1754
దే	-10.1754
தாகும்	-10.1764
co	-10.1765
▁गये	-10.1767
▁পরাজিত	-10.1768
▁முறையில்	-10.1769
▁காணப்படும்	-10.1773
▁এন	-10.1774
పురం	-10.1777
ந	-10.1788
12	-10.1791
▁అతి	-10.1792
ir	-10.1794
▁రెండవ	-10.1799
▁2014	-10.1803
గల	-10.1807
க்கோ	-10.181
▁স্টেশন	-10.1811
▁కొండ	-10.1814
▁কেন্দ্রীয়	-10.1816
▁অন্তর্গত	-10.1822
▁সমুদ্র	-10.1827
▁चित्र	-10.1836
▁एस	-10.1837
সার	-10.1841
▁கண்ட	-10.1854
▁ఆర్థిక	-10.1858
சோ	-10.1863
ச்சு	-10.1866
▁గుంటూరు	-10.1867
रु	-10.187
▁கடல்	-10.1882
▁নেতা	-10.1882
▁மாவட்டம்	-10.1893
ers	-10.1896
▁१३	-10.1903
मु	-10.1903
▁রা	-10.1903
▁নামকরণ	-10.1908
৯	-10.191
▁ছবি	-10.1911
ంద	-10.1911
▁தமிழக	-10.1911
▁मी	-10.1918
▁எனப்படும்	-10.1919
▁இதற்கு	-10.192
▁দা	-10.192
▁১৯	-10.192
▁புற	-10.1924
▁అంటే	-10.1926
▁पानी	-10.1926
▁பாட	-10.1935
ஐ	-10.1936
▁இரண்டாவது	-10.194
নগর	-10.1945
▁தொடர்	-10.1945
▁மி	-10.1946
▁தொடர்பு	-10.1947
▁जिससे	-10.1948
दी	-10.1953
தாகவும்	-10.1957
▁গো	-10.1964
▁இணைந்து	-10.1965
నుండి	-10.1969
▁ভিন্ন	-10.1971
▁खंड	-10.1972
▁நல்ல	-10.1974
▁నల్గొండ	-10.1977
▁சென்று	-10.1979
▁తల్లి	-10.198
▁माहिती	-10.1981
তু	-10.1984
▁ஏற்படும்	-10.1987
de	-10.1991
web	-10.1992
্যা	-10.1995
▁विकसित	-10.1995
▁সাহায্য	-10.2001
▁পরিবার	-10.2001
ৎ	-10.2003
ధ	-10.201
▁1998	-10.2014
రె	-10.2018
▁প্রতিটি	-10.2019
▁முழு	-10.2026
ian	-10.2034
▁गुण	-10.2036
▁लोकप्रिय	-10.2039
▁उदाहरण	-10.2045
▁समुद्र	-10.2052
▁நிதி	-10.2054
यों	-10.2058
▁छोटे	-10.206
मुळे	-10.206
▁தேவை	-10.2061
▁எதிர்	-10.2061
मि	-10.2061
स्त	-10.2068
▁अल	-10.2068
▁দলে	-10.2069
▁ছিলো	-10.2072
▁తో	-10.2077
▁বাবা	-10.2077
গঞ্জ	-10.2078
কের	-10.208
▁ऐतिहासिक	-10.2082
▁శివ	-10.2083
ন্ড	-10.2086
▁देते	-10.2087
▁সুযোগ	-10.2094
▁History	-10.2096
కొ	-10.2096
ৌ	-10.2097
नो	-10.2098
▁మందుల	-10.2099
▁அதில்	-10.2101
am	-10.2101
▁योजना	-10.2103
त्र	-10.2111
▁வே	-10.2116
नुसार	-10.2117
16	-10.2126
ருக்கு	-10.2132
▁পরিমাণ	-10.2135
▁পুনরায়	-10.2136
▁எழுத்தாளர்	-10.2137
▁दिले	-10.2137
▁সিদ্ধান্ত	-10.2141
▁গা	-10.2142
ூ	-10.2144
▁ভাবে	-10.2148
▁அதற்கு	-10.2152
▁अभ्यास	-10.2163
▁பிரிவு	-10.2167
▁বৈশিষ্ট্য	-10.2169
ाव	-10.2174
▁வகையில்	-10.218
▁নারীদের	-10.2183
▁काफी	-10.2183
▁व्यक्ती	-10.2187
▁এখন	-10.2192
▁जहाँ	-10.2195
▁గృహాలు	-10.2199
▁रखा	-10.2205
বাদী	-10.2206
▁পুরুষদের	-10.2207
ভার	-10.221
▁மறு	-10.2216
▁కళాశాల‌లు	-10.2218
▁মুহাম্মদ	-10.2219
▁बने	-10.222
ிறது	-10.2221
▁সময়ের	-10.2224
▁சொல்ல	-10.2235
▁परिणाम	-10.2237
▁ज्या	-10.2241
▁செய்யப்பட்ட	-10.2249
ిత	-10.2251
▁त	-10.2257
▁மில்லியன்	-10.2257
▁भ	-10.2258
▁உடல்	-10.2266
३	-10.2268
▁తల	-10.2269
▁महाविद्यालय	-10.2274
▁செய்யும்	-10.2281
▁(18	-10.2283
▁বন্ধ	-10.2284
▁সক্ষম	-10.2285
▁মাদ্রাসা	-10.2289
ূ	-10.23
ां	-10.2302
▁डि	-10.2303
▁தலை	-10.2305
▁இருக்க	-10.2309
ஸ்ட்	-10.2317
▁सम्राट	-10.2318
▁పూర్తి	-10.2318
▁రెడ్డి	-10.2322
▁লক্ষ	-10.2325
▁గ్రామాలు	-10.2327
▁கரு	-10.2327
▁లా	-10.2332
▁1996	-10.2336
▁চিত্র	-10.234
▁கருத்து	-10.2341
▁ফি	-10.2348
▁చేసే	-10.2353
1,	-10.2356
▁বাহিনী	-10.2358
▁மர	-10.2358
▁धार्मिक	-10.236
▁కోట	-10.2372
▁একটা	-10.2372
గో	-10.2373
வரை	-10.2381
▁महाराष्ट्रातील	-10.2382
07	-10.2392
शास्त्र	-10.2393
ించిన	-10.2396
▁त्यांची	-10.24
▁अंत	-10.2402
▁প্রবেশ	-10.2406
▁ప్రాంతం	-10.2408
सु	-10.2409
▁কয়েক	-10.2411
▁হি	-10.2414
▁2,	-10.2417
▁प्रांत	-10.2422
▁மட்டும்	-10.2422
▁পানি	-10.2426
ul	-10.2428
▁காட்சி	-10.2433
▁अलावा	-10.2434
▁প্রশাসনিক	-10.2438
▁ఎక్కువగా	-10.2441
▁পরিকল্পনা	-10.2443
▁போட்டி	-10.2445
▁పశ్చిమ	-10.2447
▁ব্যাপক	-10.2449
▁মাধ্যমিক	-10.2449
গুলিতে	-10.2449
त्या	-10.2451
ma	-10.2451
▁వె	-10.2457
▁উৎস	-10.2461
X	-10.2462
▁ஆக	-10.2463
▁जानेवारी	-10.2465
▁देशों	-10.2471
0%	-10.2472
▁చరిత్ర	-10.2473
५	-10.2477
▁ফল	-10.248
▁उद्योग	-10.2483
▁வெப்ப	-10.2485
▁দাবি	-10.2485
▁দখল	-10.2486
▁दुनिया	-10.2487
▁కారణంగా	-10.249
28	-10.25
06	-10.25
వాడు	-10.2503
▁তত্ত্ব	-10.2504
st	-10.2506
);	-10.2508
ড়ি	-10.2515
▁अनुवाद	-10.2517
▁বিভক্ত	-10.252
ary	-10.2521
▁জা	-10.2524
▁கடைசியாக	-10.2527
றை	-10.2535
▁जबकि	-10.2536
▁வடிவ	-10.2537
▁কার্যক্রম	-10.2543
▁ஒருவர்	-10.2544
▁व्यवस्था	-10.2547
ங்களையும்	-10.2549
▁নির্বাচন	-10.255
▁இந்து	-10.255
▁स्व	-10.255
▁নগর	-10.2552
▁गु	-10.2554
களைத்	-10.2557
▁அடிப்படையில்	-10.2563
▁বের	-10.2565
▁এসে	-10.2566
▁పలు	-10.2567
த்தைப்	-10.257
১৭	-10.2577
▁சிவ	-10.258
▁அங்கு	-10.2584
▁కలిసి	-10.2587
▁சிகிச்சை	-10.2592
▁வந்தது	-10.2594
▁कविता	-10.2601
েরা	-10.2602
▁பிரித்தானிய	-10.2603
▁এস	-10.2607
▁ஜ	-10.261
க்குப்	-10.2612
▁இறப்பு	-10.2613
▁কৃষি	-10.2621
नगर	-10.2624
▁விபரக்குறிப்பு	-10.2633
▁सामने	-10.2635
▁পৃথিবীর	-10.2637
▁नंतर	-10.2638
▁लोकसंख्या	-10.264
पू	-10.264
▁காண	-10.2644
▁একদিনের	-10.2646
▁Co	-10.2647
▁விளையாட்டுவீரர்	-10.2647
▁২২	-10.2648
▁80	-10.2649
▁करण्यासाठी	-10.2652
▁অর্থনৈতিক	-10.2655
▁২১	-10.2657
▁அதை	-10.2657
▁ऐ	-10.2658
▁वर	-10.2659
▁யா	-10.2668
▁எல்லா	-10.2671
▁সম্ভব	-10.2676
▁दिला	-10.2678
▁বর্গ	-10.2679
▁হ	-10.2686
▁২৩	-10.2689
▁स्त्री	-10.269
जन	-10.2691
▁অধিকাংশ	-10.2696
▁இடத்தில்	-10.2698
▁নীল	-10.2704
▁শব্দটি	-10.2705
▁मुक्त	-10.2705
▁पृथ्वी	-10.2708
यर	-10.2709
ান	-10.2709
▁వచ్చే	-10.2709
ामधील	-10.2712
▁விளக்க	-10.2714
▁किलोमीटरहून	-10.2716
▁নির্দেশ	-10.2717
▁எனக்	-10.2718
পার	-10.2719
টিতে	-10.2721
ut	-10.2721
la	-10.2723
▁సంగీతం	-10.273
মু	-10.2732
▁टी	-10.2732
▁కాలువ	-10.274
▁ఎన్నికలలో	-10.2742
▁दल	-10.2744
▁एकूण	-10.2744
টো	-10.2744
▁क्षेत्रों	-10.2744
▁দেবী	-10.2746
▁புனித	-10.2746
▁সংগ্রহ	-10.2746
▁কাজে	-10.2748
సం	-10.2751
▁வழியாக	-10.2752
काल	-10.2753
ముల	-10.2756
घ	-10.2759
▁स्तर	-10.276
▁జరిగింది	-10.2761
▁ஒலி	-10.2761
णा	-10.2761
▁கொண்டுள்ளது	-10.2764
▁मिल	-10.2768
▁जनता	-10.2769
▁குறிப்பாக	-10.2774
ங்கி	-10.2779
ঞ্জ	-10.278
▁శ్రీకాకుళం	-10.2785
▁পরি	-10.2788
▁எனவும்	-10.2789
▁தன்மை	-10.2791
ळी	-10.2793
▁गुरु	-10.2794
▁बंगाल	-10.2795
▁मीटर	-10.2799
सन	-10.28
தல்	-10.2803
▁అక్కడ	-10.2805
▁जात	-10.2808
▁ध	-10.281
▁ஸ்ரீ	-10.2811
पर्यंत	-10.2816
▁மீ	-10.282
▁হয়নি	-10.2821
▁মসজিদ	-10.2823
▁1970	-10.2825
▁समावेश	-10.283
▁కవి	-10.2837
▁হাই	-10.284
▁1.	-10.2841
ঙ্ক	-10.2843
▁অধ্যাপক	-10.2843
▁প্রমাণ	-10.2846
▁জ	-10.2846
▁ওয়া	-10.2848
ण्यासाठी	-10.2854
▁শতকের	-10.2854
िल	-10.2854
ண்டி	-10.2855
▁২০০৫	-10.2855
बे	-10.2857
कु	-10.2859
▁ஏற்பட்ட	-10.2859
▁தமிழர்	-10.2859
▁சங்க	-10.2871
▁अंग	-10.2871
▁इसलिए	-10.2875
▁जिस	-10.2884
▁பெரும்பாலான	-10.2887
▁36	-10.2887
▁ఒ	-10.2888
▁সম্পর্কিত	-10.2889
▁तुम	-10.2891
▁ఉత్తమ	-10.2892
▁দেখতে	-10.2893
▁ওয়েস্ট	-10.2895
వ్	-10.2896
▁সংসদ	-10.2896
▁थीं	-10.2904
எ	-10.2917
▁d	-10.2925
▁ইউরোপীয়	-10.2928
லில்	-10.293
▁நாட்டின்	-10.293
▁తొలి	-10.2933
▁দ্রুত	-10.2935
▁ভবন	-10.2935
▁వీర	-10.2938
▁an	-10.294
▁கணினி	-10.2943
▁সাদা	-10.2944
ন্স	-10.2948
08	-10.2951
▁வருகிறது	-10.2963
▁பாதுகாப்பு	-10.2964
వచ్చు	-10.2973
▁सम	-10.2973
সমূহের	-10.2973
▁প্রতিযোগিতা	-10.2974
ంగ	-10.2978
ళ్ల	-10.2983
▁स्थल	-10.2989
▁యు	-10.299
▁গিয়ে	-10.2991
খা	-10.2999
ील	-10.3001
ेस	-10.3009
১২	-10.3013
▁1960	-10.3016
▁மத	-10.3017
13	-10.3019
▁दुसऱ्या	-10.3019
▁గు	-10.302
▁পিতা	-10.3022
▁भू	-10.3026
▁இதை	-10.3028
▁सार्वजनिक	-10.3031
বল	-10.3035
▁வாழ்க்கை	-10.3037
▁শিল্পী	-10.3042
▁চারটি	-10.3044
▁वंश	-10.305
▁বিয়ে	-10.3051
▁এল	-10.3051
▁An	-10.3054
▁फुटबॉल	-10.3058
▁వచ్చి	-10.3058
வாக	-10.3063
▁দে	-10.3066
▁இறுதி	-10.3068
▁নিয়ন্ত্রণ	-10.3068
▁ర	-10.3078
▁মোহাম্মদ	-10.3081
ism	-10.3083
गड	-10.3084
யார்	-10.3087
▁প্রয়োজন	-10.3094
▁குறித்த	-10.3095
களான	-10.3096
▁సంవత్సరం	-10.3096
▁కరీంనగర్	-10.3096
▁সমর্থন	-10.3096
▁య	-10.3098
▁২০০৪	-10.3103
▁பிரி	-10.3106
▁इससे	-10.3106
ষ	-10.3107
05	-10.311
19	-10.3115
▁ஆண்	-10.3117
िन	-10.3122
▁বলতে	-10.3123
▁ஆங்கில	-10.3127
▁झालेल्या	-10.3127
▁मोठ्या	-10.3127
▁खा	-10.3128
▁பார்க்கப்பட்ட	-10.3129
▁विशिष्ट	-10.3137
वन	-10.3138
▁1991	-10.3139
১৫	-10.314
ist	-10.3144
த்தல்	-10.3146
சர்	-10.315
▁దేశ	-10.3153
ాల్లో	-10.3154
ுள்ளன	-10.3155
▁వచ్చింది	-10.3158
▁अभिनेत्री	-10.3163
లె	-10.3164
▁১৯৯০	-10.3165
▁स्वतंत्र	-10.317
▁कवि	-10.3171
్‌	-10.3172
रूप	-10.3173
गाव	-10.3174
04	-10.3175
▁हि	-10.3177
os	-10.3178
▁स्वरूप	-10.3182
▁শাখা	-10.3184
▁ন	-10.3192
▁இருந்தார்	-10.3198
▁48	-10.3202
▁एन	-10.3202
▁परि	-10.3203
নী	-10.3207
▁अतिरिक्त	-10.3212
▁भाव	-10.3215
ైన	-10.3219
▁நாடுகளில்	-10.322
కుండా	-10.3228
▁पु	-10.3229
▁सह	-10.3229
▁42	-10.323
▁உதவி	-10.3234
▁কালো	-10.3235
▁শিশু	-10.324
▁युग	-10.3241
▁लि	-10.3241
▁వై	-10.3241
▁ఉండే	-10.3246
▁கெ	-10.325
▁எண்ணிக்கை	-10.3252
▁நேர	-10.3255
েও	-10.3255
29	-10.3256
गे	-10.3257
▁পরবর্তীকালে	-10.326
▁मत	-10.3263
▁అనగా	-10.3263
మై	-10.3265
▁ব্যাংক	-10.3268
▁పాత్ర	-10.3271
▁இணைய	-10.3276
▁पे	-10.3279
णाऱ्या	-10.3279
▁$	-10.3281
▁উপাদান	-10.3282
j	-10.3285
▁பக்க	-10.3285
▁நிற	-10.329
▁আলাদা	-10.3294
▁প্রজাতির	-10.3295
ட்டா	-10.3297
▁শাসন	-10.3299
▁संबंधित	-10.3308
▁पार्टी	-10.3308
బడి	-10.331
▁கோவில்	-10.3312
এস	-10.3315
▁पाया	-10.3322
▁மைய	-10.3325
▁மூல	-10.3325
▁இதனை	-10.3331
▁மாத	-10.3331
55	-10.3332
▁বিশ্বকাপের	-10.3332
ంచ	-10.3334
▁காட்ட	-10.3337
▁रेल	-10.3337
▁1994	-10.3341
ामुळे	-10.3341
▁எண்ண	-10.3343
▁అదే	-10.3344
য়ান	-10.3344
▁বাংলার	-10.3345
▁प्रा	-10.3348
27	-10.3352
▁1989	-10.3352
▁বয়সী	-10.3353
▁পাকিস্তানি	-10.3356
▁அக	-10.3357
▁33	-10.336
▁ফিফা	-10.336
▁மொத்த	-10.3363
11	-10.3364
▁మహిళల	-10.3366
▁நடந்த	-10.3367
आर	-10.3373
▁लेखन	-10.3375
রী	-10.3382
▁इनके	-10.3388
▁వా	-10.339
शे	-10.3392
ष	-10.3392
▁फ	-10.3395
▁ফুল	-10.3396
▁লে	-10.3401
भा	-10.3404
▁सो	-10.3409
ళ	-10.341
▁அதிகமாக	-10.3413
▁ব্যাখ্যা	-10.3413
▁বসবাস	-10.3415
কর	-10.3417
▁प्रक्रिया	-10.3421
▁34	-10.3421
▁বংশোদ্ভূত	-10.3422
09	-10.3428
ினை	-10.3429
வழி	-10.3429
▁World	-10.343
বিদ	-10.3441
▁শা	-10.3445
▁வெ	-10.3447
▁माता	-10.3447
▁আবু	-10.3451
▁ত	-10.3452
▁কেউ	-10.3452
▁e	-10.3455
▁1997	-10.3455
ছেন	-10.3459
নাথ	-10.3462
▁দক্ষিণে	-10.3463
తీ	-10.3464
▁শহীদ	-10.3466
▁প্রাকৃতিক	-10.3472
▁জীবনের	-10.3478
వాగు	-10.3478
▁மதுரை	-10.348
▁दरम्यान	-10.3482
▁পশ্চিমবঙ্গের	-10.3484
▁सत्य	-10.3488
se	-10.3489
▁সম্রাট	-10.3489
▁Al	-10.349
▁स्वयं	-10.3494
▁যেটি	-10.3494
َ	-10.3495
▁পার	-10.3496
▁ডে	-10.3498
रू	-10.3502
▁एक्स्प्रेस	-10.3509
60	-10.3513
स्टेशन	-10.3514
గి	-10.3514
চা	-10.3514
▁ఆదిలాబాద్	-10.3515
▁সংযুক্ত	-10.3516
31	-10.3518
சின்	-10.3518
▁ফুট	-10.3523
▁La	-10.353
▁প্রতীক	-10.3534
▁अभिनेता	-10.3534
ట్ల	-10.3535
▁প্রস্তাব	-10.3535
▁కే	-10.3537
వ్వ	-10.3538
▁ध्यान	-10.3539
▁सूची	-10.3542
▁जहां	-10.3542
ter	-10.3552
▁सैन्य	-10.3555
▁வீர	-10.3556
▁37	-10.3557
▁ওঠে	-10.356
▁গল্প	-10.3561
ுகிறார்	-10.3561
▁உரிமை	-10.3561
▁दृष्टि	-10.3563
▁मात्रा	-10.3565
▁భార్య	-10.3565
▁মানব	-10.3566
▁पूजा	-10.3568
▁যাত্রা	-10.3569
▁स्कूल	-10.357
▁எழுத்து	-10.3572
▁आर	-10.3573
▁மூலமாக	-10.3581
▁মৌসুমে	-10.3588
▁நீ	-10.3593
▁தடை	-10.3595
रिया	-10.3598
ుడి	-10.3598
యే	-10.3599
▁చేసింది	-10.36
▁ధర్మ	-10.3602
▁శాఖ	-10.3604
▁২৬	-10.3605
▁ফুটবলার	-10.3606
▁போன்றவை	-10.3608
▁பயன்படுத்தி	-10.3609
▁செய்தி	-10.3613
वार	-10.3614
▁ఉన్నత	-10.3614
▁করত	-10.3614
▁উৎপাদন	-10.3615
▁করবে	-10.3615
▁ప్రస్తుతం	-10.3616
▁पता	-10.3617
బడిన	-10.3618
▁रहते	-10.3618
son	-10.3619
▁శ	-10.362
যা	-10.3627
▁மாதம்	-10.3629
▁வடக்கு	-10.3633
33	-10.3633
▁ప్రాంతంలో	-10.3634
▁వే	-10.3635
ப்பட்டுள்ளன	-10.3635
▁লক্ষ্য	-10.3636
▁সাম্রাজ্যের	-10.3639
ent	-10.364
ch	-10.3647
வரும்	-10.365
ळे	-10.3653
▁பொருளாதார	-10.3655
▁ऑस्ट्रेलिया	-10.3658
▁விடுதலை	-10.3659
▁অভিষেক	-10.3661
▁আন্দোলনের	-10.3666
ment	-10.3668
▁నిర్వహించారు	-10.367
▁শ্রী	-10.3675
▁అత్యంత	-10.3676
▁உரை	-10.3681
▁குறிக்கும்	-10.3683
ழி	-10.3686
▁నది	-10.3686
గిరి	-10.3689
யைத்	-10.3689
▁பேர	-10.3692
▁விளையாட்டு	-10.3696
ப்படுகின்றது	-10.3696
▁শুধুমাত্র	-10.3699
▁వాడ	-10.3705
▁চিহ্নিত	-10.3707
▁খাদ্য	-10.3709
▁పొందిన	-10.371
▁भागात	-10.3711
▁তৈরী	-10.3712
दे	-10.3717
▁நகரில்	-10.3717
▁पाठ	-10.3717
▁মাছ	-10.3719
▁रा	-10.3719
पाल	-10.3722
▁সর্ব	-10.3723
▁குரு	-10.3724
▁स्पष्ट	-10.3725
తే	-10.3726
▁நூல்கள்	-10.3727
ন্ট	-10.3729
▁International	-10.373
▁অস্ট্রেলিয়া	-10.3733
▁গোল	-10.3736
▁நாடக	-10.3738
▁এন্ড	-10.374
▁శక్తి	-10.3742
▁হতো	-10.3745
▁यू	-10.3748
▁आगे	-10.3749
▁দুইটি	-10.3749
জার	-10.375
▁প্রাপ্ত	-10.3751
▁जर्मनी	-10.3752
▁যৌন	-10.3759
▁தகவல்	-10.376
▁তুলে	-10.3762
▁मोठे	-10.3769
▁ব্যা	-10.3773
▁पत्र	-10.3778
பர்	-10.3782
▁তারপর	-10.3785
పూర్	-10.3786
▁होगा	-10.3786
▁গ্রামে	-10.3791
▁धन	-10.3793
▁ஒன்றாகும்	-10.3795
▁పని	-10.38
▁பழைய	-10.3802
▁चि	-10.3803
▁200	-10.3804
▁पो	-10.3804
▁కాలం	-10.3805
▁అధిక	-10.3808
ிட	-10.381
▁সিটি	-10.3812
ந்தி	-10.3813
▁৫০	-10.3818
▁व्यापार	-10.3822
▁সন্তান	-10.3824
நா	-10.3824
▁பிரதேச	-10.3839
▁உலகின்	-10.3839
▁బె	-10.384
बल	-10.3844
▁செல்லும்	-10.3845
▁बंद	-10.3857
▁மார்ச்	-10.3858
▁మొక్కజొన్న	-10.386
ులకు	-10.3865
করণ	-10.3867
▁முயற்சி	-10.387
ऱ्या	-10.387
లుగా	-10.387
▁सुरुवात	-10.3871
पे	-10.3875
▁உறுப்பினர்கள்	-10.3877
▁साधारण	-10.3878
আই	-10.3882
▁जुलै	-10.3883
▁উদ্দেশ্যে	-10.3886
▁फेब्रुवारी	-10.3887
என்	-10.389
▁হোসেন	-10.3892
em	-10.3894
▁X	-10.3895
▁மகா	-10.3898
▁इंडिया	-10.3898
▁ডিগ্রি	-10.3902
▁তুলনায়	-10.3903
వరం	-10.3905
▁జాబితా	-10.3905
त्	-10.3905
స్వామి	-10.3911
▁যোগাযোগ	-10.3912
▁বস্তু	-10.3914
ணை	-10.3915
ாய்	-10.3915
▁वाट	-10.3916
▁विद्यापीठ	-10.392
▁అలాగే	-10.3921
▁తా	-10.3922
▁बो	-10.3922
▁తిరుపతి	-10.3923
▁संमेलन	-10.3928
▁தேதி	-10.3931
▁प्रमाण	-10.3931
టర్	-10.3931
▁অধিক	-10.3936
▁পথ	-10.3936
▁অত্যন্ত	-10.3938
▁பால்	-10.3938
▁तौर	-10.3944
▁70	-10.3944
▁आंबेडकर	-10.3948
சே	-10.3948
দিন	-10.3954
▁संग्रह	-10.3954
▁ఉత్పత్తులు	-10.3955
एम	-10.3957
টন	-10.3957
▁దేవ	-10.3958
▁প্রধানমন্ত্রী	-10.3958
▁सुविधा	-10.3961
▁রো	-10.3961
ন্দ	-10.3962
00	-10.3963
▁எழுத	-10.3964
▁విశ్వవిద్యాలయం	-10.3965
▁২৮	-10.3967
▁संपूर्ण	-10.3972
▁বাইরে	-10.3973
▁చె	-10.3976
▁தொலைக்காட்சி	-10.3981
▁ইংল্যান্ডের	-10.3986
ష్ట	-10.3986
▁be	-10.3988
▁டெ	-10.3988
▁1992	-10.3991
▁సె	-10.3991
వారి	-10.3992
ళ్ళు	-10.3995
▁मुख्यालय	-10.3997
▁38	-10.3998
▁केलेल्या	-10.4001
▁g	-10.4002
▁বেশিরভাগ	-10.4005
▁2.	-10.4005
▁हालांकि	-10.4008
▁రావు	-10.4009
▁ऊपर	-10.4011
▁জ্ঞান	-10.4014
▁ব্যক্তিত্ব	-10.4024
▁সম্পন্ন	-10.4027
▁जीव	-10.4028
▁বিস্তৃত	-10.4029
▁মডেল	-10.4032
▁জুড়ে	-10.4036
▁উচ্চতা	-10.4038
▁44	-10.404
வியல்	-10.404
ோடு	-10.4043
▁வந்து	-10.4044
▁கொள்கை	-10.4045
▁मूळ	-10.4045
▁1995	-10.405
▁जय	-10.4051
▁जमीन	-10.4053
▁বীর	-10.4054
▁అవి	-10.4056
▁ছাড়া	-10.4059
▁কাপ	-10.4059
▁அல்	-10.4062
கிறது	-10.4063
▁त्यांचा	-10.4063
ங்களிலும்	-10.4064
▁আয়তন	-10.4066
▁রোমান	-10.407
▁তে	-10.4072
▁విడుదలైన	-10.4074
▁ফর	-10.4077
▁நிலையம்	-10.4081
॰	-10.4085
భ	-10.4085
▁आनंद	-10.4086
▁பிறந்த	-10.4087
mi	-10.4089
யன்	-10.409
[	-10.4092
▁त्याचे	-10.4094
▁இணை	-10.4095
22	-10.4096
▁వైద్యశాలలో	-10.4103
▁হক	-10.4104
ஞ்ச	-10.4108
▁मिला	-10.4109
▁নিকট	-10.4109
ंज	-10.4109
పల్లె	-10.4114
ak	-10.4115
▁ముఖ్య	-10.4117
▁অলিম্পিক	-10.4117
▁సుమారు	-10.4121
ముగా	-10.4121
బీయెస్	-10.4124
▁ఈయన	-10.4124
▁अवधि	-10.4125
▁চুক্তি	-10.4125
▁आने	-10.4127
▁ர	-10.4127
▁डिसेंबर	-10.4127
▁కాదు	-10.4128
ప్పుడు	-10.4132
▁ஆகியோர்	-10.4134
▁নিম্ন	-10.4135
▁नियम	-10.4137
▁সত্য	-10.4139
ూరు	-10.414
▁ఎమ్బీ	-10.4141
দে	-10.4149
▁విద్య	-10.415
तून	-10.415
▁स्	-10.4155
▁பயிற்சி	-10.4158
▁లేక	-10.4161
వీ	-10.4166
48	-10.4167
தம்	-10.4167
▁स्वीकार	-10.4168
▁त्यानंतर	-10.417
▁উত্তরে	-10.4172
▁పారిశ్రామిక	-10.4173
নিক	-10.4175
▁ক্রীড়া	-10.4175
ापासून	-10.4181
▁राय	-10.4181
▁২৭	-10.4183
▁ক্লাবের	-10.4188
ాలతో	-10.4189
রাজ	-10.4192
ফি	-10.4196
▁জু	-10.4197
▁मि	-10.4197
▁योग	-10.4197
▁రి	-10.4198
▁কাছ	-10.4203
▁అమెరికా	-10.4205
▁सुमारे	-10.4209
▁ইনস্টিটিউট	-10.4209
▁संशोधन	-10.4212
▁रस	-10.4216
▁সহায়তা	-10.4219
லு	-10.4221
▁சென்ற	-10.4234
▁ভা	-10.4238
▁চরিত্র	-10.424
▁বাজার	-10.4242
ாது	-10.4244
▁স্বাধীন	-10.4244
▁यांची	-10.4251
▁দেব	-10.4251
▁পর্যায়ে	-10.4255
▁दु	-10.4255
▁போல்	-10.4257
▁நோக்க	-10.4261
▁असलेले	-10.4263
▁दा	-10.4267
▁उसी	-10.4267
▁अंतिम	-10.4273
▁Na	-10.4273
▁தலைமை	-10.4273
▁ప్రజల	-10.4274
தோ	-10.4277
▁अति	-10.4279
ांवर	-10.4279
▁செலுத்த	-10.4282
▁నాగ	-10.4282
రెడ్డి	-10.4284
এম	-10.4284
ti	-10.4286
▁அதாவது	-10.4287
▁சம	-10.4289
▁இவர்கள்	-10.4289
▁হ্যা	-10.4292
దీ	-10.4294
ஃப்	-10.4296
▁முக்கியமான	-10.4298
▁পাখি	-10.4302
పాలెం	-10.4302
47	-10.4308
▁தேர்தல்	-10.431
▁दि	-10.4311
▁முன்னாள்	-10.4313
▁আমি	-10.4315
35	-10.4317
▁கூட்ட	-10.4317
হি	-10.4341
▁వారికి	-10.4342
▁బాగా	-10.4342
▁একাধিক	-10.4344
▁अमेरिकन	-10.4345
▁చే	-10.4345
▁মুক্ত	-10.4346
ا	-10.4348
ப்பட்டார்	-10.435
▁பகுதிகளில்	-10.4351
03	-10.4351
80	-10.4354
▁இத்திரைப்படத்த	-10.4356
▁தமது	-10.4359
▁మెదక్	-10.4362
▁డా	-10.4363
னும்	-10.4364
स्थ	-10.4366
থি	-10.4366
▁शैली	-10.4366
আর	-10.4373
▁मह	-10.4376
▁पत्नी	-10.4378
▁ऑगस्ट	-10.438
డే	-10.4385
▁स्वामी	-10.4391
ట్టు	-10.4391
▁సీతారామరాజు	-10.4391
▁எதிராக	-10.4392
▁(;	-10.4394
▁১০০	-10.4396
ro	-10.4397
▁২০০৩	-10.4401
गु	-10.4404
▁किये	-10.4414
▁होना	-10.4415
▁అల్లూరి	-10.4415
ियन	-10.4416
▁உள்ளனர்	-10.4417
▁இந்தக்	-10.4422
▁அடுத்த	-10.4431
ிடம்	-10.4433
▁सिद्ध	-10.4434
तर	-10.4437
्र	-10.444
▁विस्तार	-10.4441
र्ड	-10.4442
कि	-10.4445
வான	-10.4446
38	-10.4448
▁छ	-10.4449
ce	-10.4451
56	-10.4451
▁பெரு	-10.4454
ডা	-10.4455
স্ত	-10.446
▁गुजरात	-10.446
▁সোভিয়েত	-10.4463
▁पर्यंत	-10.4463
▁बाजार	-10.4469
ాయ	-10.4469
▁தங்கள்	-10.447
▁மன	-10.4474
▁দিবস	-10.4479
▁নিজস্ব	-10.448
▁యుద్ధం	-10.4481
▁ধরা	-10.4482
द्र	-10.4484
पूर्ण	-10.4485
▁ప్రేమ	-10.4485
িকা	-10.4486
▁पर्वत	-10.449
▁పంచ	-10.4491
▁அவற்றின்	-10.4492
▁জড়িত	-10.4497
▁নে	-10.4498
ल्ड	-10.4499
37	-10.4501
▁జూలై	-10.4502
नंतर	-10.4506
▁style	-10.4507
১১	-10.4508
বু	-10.4509
ধ	-10.4511
▁m	-10.4513
கன்	-10.4514
▁நீண்ட	-10.4517
▁भूमि	-10.4517
ும்போது	-10.452
49	-10.4521
▁বু	-10.4522
▁57	-10.4523
▁பால	-10.4529
ర్‌	-10.453
▁আদমশুমারি	-10.4538
▁మార్చి	-10.4538
ছিলেন	-10.4538
য	-10.4539
▁ఐదు	-10.4539
தும்	-10.4542
▁తక్కువ	-10.4546
టో	-10.4546
▁শতাংশ	-10.4548
▁பெற்று	-10.4551
▁చేర	-10.4552
▁य	-10.4555
▁কোনও	-10.4563
▁আহমেদ	-10.4563
▁पूरी	-10.4563
▁ఆధారంగా	-10.4566
தற்கு	-10.4567
ंस	-10.457
४	-10.457
▁विधि	-10.4576
जो	-10.4576
32	-10.4578
▁কাল	-10.4581
২০	-10.4584
லும்	-10.4584
▁व्यवसाय	-10.4589
গুলোতে	-10.4592
కులు	-10.4592
எம்	-10.4594
▁কর	-10.4605
▁नवीन	-10.4614
▁महान	-10.4616
46	-10.4616
ियां	-10.4622
▁সড়ক	-10.4626
ిని	-10.4628
▁लगे	-10.4629
▁করছে	-10.4633
పూ	-10.4634
ாகவும்	-10.4636
▁अंतर	-10.4636
▁நடைபெற்ற	-10.4639
தர்	-10.4639
▁भारतात	-10.4639
চে	-10.464
▁गंगा	-10.464
ेन	-10.4641
ang	-10.4642
ః	-10.4644
डो	-10.465
▁প্রযুক্তি	-10.4651
▁প্রথমে	-10.4652
▁क्षमता	-10.4653
ాను	-10.4655
▁ఉండ	-10.4657
36	-10.4659
▁that	-10.466
கள	-10.4664
▁शाह	-10.4666
▁కార్	-10.4667
▁সংগঠন	-10.4671
म्प	-10.4673
▁आठ	-10.4675
ட்ஸ்	-10.4676
▁ఘంటసాల	-10.4678
▁সো	-10.4678
ell	-10.4681
▁क्रिया	-10.4681
சார்	-10.4683
▁लाभ	-10.4685
▁కాంగ్రెస్	-10.4689
▁কন	-10.4689
▁সং	-10.4692
हार	-10.4695
▁ஆராய்ச்சி	-10.4698
பே	-10.4707
▁కొంత	-10.4707
▁முக	-10.4715
टर	-10.4715
▁இவ்வாறு	-10.4715
▁চিকিৎসা	-10.472
▁హిందూ	-10.4721
▁செய்தார்	-10.4725
▁हेतु	-10.4726
▁திரைப்படம்	-10.4727
▁সংস্করণ	-10.473
▁వాటి	-10.4732
▁প্রভৃতি	-10.4733
▁নিযুক্ত	-10.4737
▁পুলিশ	-10.4741
▁மேற்பட்ட	-10.4742
▁नाट्य	-10.4742
▁Con	-10.4747
▁இயற்கை	-10.4747
▁আসন	-10.4747
ుకుని	-10.4751
▁அமைந்த	-10.4753
▁পৌরসভা	-10.4753
▁तरी	-10.4756
▁కేంద్ర	-10.4758
▁इत्यादी	-10.4763
▁जिनमें	-10.4763
39	-10.4764
▁বাড়ি	-10.4767
டைய	-10.477
▁நம்பிக்கை	-10.477
చ్చ	-10.4774
▁కాల	-10.4775
▁விலை	-10.4778
▁কবিতা	-10.4778
▁நூற்றாண்டில்	-10.4779
▁मैं	-10.4779
▁बाहर	-10.4784
పల్లెలో	-10.4784
▁रु	-10.4801
టానికి	-10.4802
স্থ	-10.4802
शि	-10.4803
▁অতি	-10.4805
▁जनसंख्या	-10.4805
▁राजस्थान	-10.4806
▁உலகப்	-10.4806
▁৫৯	-10.4812
▁அடிப்படை	-10.4812
▁পৃথক	-10.4818
▁সমস্যা	-10.4818
हि	-10.4822
▁झ	-10.4824
▁शिवाजी	-10.4831
▁ప్రత్తి	-10.4832
▁প্রদেশ	-10.4836
লের	-10.4837
▁అన	-10.4837
▁गीत	-10.4837
▁సాహిత్య	-10.4841
▁இவ்வ	-10.4842
▁அணு	-10.4845
১৬	-10.4849
யின	-10.485
ल्	-10.4857
34	-10.486
মের	-10.486
▁सर्वश्रेष्ठ	-10.486
িয়ার	-10.486
▁পশ্চিমে	-10.4862
ங்களைக்	-10.4865
ிக்	-10.4866
▁தொடர்பான	-10.4869
▁ইউনিভার্সিটি	-10.4869
ीन	-10.4871
▁কলেজের	-10.4874
▁কন্যা	-10.4874
▁এলাকার	-10.4874
ya	-10.4876
లోనే	-10.4876
▁হাত	-10.4877
నె	-10.4878
▁அமெரிக்கா	-10.4878
▁தாக்க	-10.4881
▁কলকাতার	-10.4893
▁देखा	-10.4902
▁চতুর্থ	-10.4902
▁தொழில்நுட்ப	-10.4908
▁<	-10.491
பதி	-10.491
▁শেষে	-10.4918
స్‌	-10.492
▁அவருடைய	-10.4922
▁जगह	-10.4924
▁সমাজ	-10.4928
▁হয়েছিলেন	-10.4929
▁काळ	-10.4934
ৈ	-10.4936
▁నిర్మించిన	-10.4936
▁সাংস্কৃতিক	-10.4936
▁खेल	-10.4939
िस	-10.4941
ేవారు	-10.4942
▁पहिला	-10.4943
▁मिलता	-10.4945
▁దా	-10.4946
களுள்	-10.4946
दि	-10.4946
▁अव	-10.4947
▁தோ	-10.4949
▁অনুষ্ঠান	-10.4951
ధి	-10.4952
▁क्या	-10.4953
▁முதலாவது	-10.4955
▁বাহিনীর	-10.4958
▁एप्रिल	-10.4965
वान	-10.4969
গার	-10.4969
▁जैन	-10.497
▁పెళ్ళి	-10.4971
▁கருவி	-10.4971
ढ	-10.4973
হীন	-10.4974
▁পারেন	-10.4975
लेले	-10.4977
पणे	-10.498
53	-10.498
▁नृत्य	-10.4982
▁अधिकांश	-10.4984
▁বন	-10.4984
পে	-10.4988
পাড়া	-10.4989
▁সংস্কৃতি	-10.4989
▁নেতৃত্বে	-10.4992
▁மதிப்பு	-10.4993
िनी	-10.5005
ిస్తుంది	-10.5005
▁லா	-10.5009
▁ऑक्टोबर	-10.501
ம்பு	-10.5012
ులను	-10.5013
▁ஆண்டுகள்	-10.5014
and	-10.5015
হার	-10.5017
▁সম্পাদক	-10.5023
ेत	-10.5027
▁రే	-10.5028
▁রোগ	-10.5028
▁மனைவி	-10.5028
▁दूरी	-10.5029
▁हजार	-10.5031
ளை	-10.5032
▁খ	-10.5034
▁दूसरी	-10.5039
▁ভর্তি	-10.5039
▁வேண்டிய	-10.5039
▁আয়োজন	-10.5041
42	-10.5042
১৪	-10.5045
▁প্রতিষ্ঠাতা	-10.5046
▁সিস্টেম	-10.5046
▁নানা	-10.5048
58	-10.5049
▁చేశాడు	-10.5052
মিটার	-10.5052
85	-10.5053
▁ফা	-10.5055
▁பார்க்கவும்	-10.5056
▁রেলওয়ে	-10.5056
▁অবস্থা	-10.5057
▁সেবা	-10.5058
61	-10.5058
▁1984	-10.5059
▁பீ	-10.506
▁ছেলে	-10.5061
▁जारी	-10.5061
▁ஆற்றல்	-10.5061
బు	-10.5065
▁ஆண்ட	-10.5066
▁முதன்மை	-10.5069
▁ইংল্যান্ড	-10.5069
গ্রাম	-10.5072
▁திட்ட	-10.5075
▁सर्वाधिक	-10.508
▁সম	-10.5081
▁প্রজাতি	-10.5081
ெ	-10.5082
lo	-10.5086
▁একাডেমি	-10.5089
65	-10.509
▁माल	-10.5091
▁மறை	-10.5093
▁अनुभव	-10.5095
▁সুলতান	-10.5096
▁নিজ	-10.5097
▁आते	-10.51
▁వెంకట	-10.51
▁ठिकाणी	-10.5102
ॉ	-10.5102
▁প্রাণী	-10.5106
▁বিশাল	-10.5107
ుడైన	-10.5108
▁ஒன்றாக	-10.5112
▁উদ্ভিদ	-10.5112
▁অস্ট্রেলিয়ার	-10.5117
▁সরাসরি	-10.5117
▁ধীরে	-10.5118
விற்கு	-10.5119
ஸ	-10.5121
▁ஆக்கைவில	-10.5121
ाय	-10.5122
▁விமான	-10.5123
▁नारायण	-10.5123
▁बु	-10.5125
ఐ	-10.5128
▁পরীক্ষা	-10.5131
▁అంతర్జాతీయ	-10.5131
▁முழுவதும்	-10.5133
▁नोव्हेंबर	-10.5136
▁தேர்ந்தெடுக்க	-10.5136
▁पंजाब	-10.5136
ছিল	-10.5137
பின்	-10.5142
▁चला	-10.5144
சாமி	-10.5149
ভিত্তিক	-10.5155
▁உறுப்பினராக	-10.5156
▁शि	-10.5158
▁చా	-10.516
మె	-10.5161
▁ஆஃப்	-10.5165
▁सांस्कृतिक	-10.5166
▁রেল	-10.5168
▁2015	-10.517
▁यु	-10.5174
▁ব্যক্তিগত	-10.5176
▁முதலாம்	-10.5177
বো	-10.5184
ைத்	-10.5186
▁ल	-10.5187
▁चाल	-10.519
▁வீரர்	-10.519
ட்டை	-10.519
▁যুক্তরাষ্ট্র	-10.5191
▁বিরোধী	-10.5198
▁মন	-10.5198
▁தவிர	-10.5198
त्त	-10.5205
ड़ी	-10.5208
షా	-10.5209
▁సాధారణంగా	-10.5209
▁भिन्न	-10.5209
▁থাকতে	-10.5209
▁वाढ	-10.521
▁కన్నా	-10.521
পূর্ণ	-10.5216
▁পরিবহন	-10.5217
▁नियंत्रण	-10.5218
▁ग्राम	-10.5221
▁प्रयत्न	-10.5228
▁নিহত	-10.5228
▁নকশা	-10.5229
వర	-10.5229
মৃ	-10.523
ிருந்தது	-10.5237
▁सागर	-10.5239
▁সেন	-10.524
▁আদর্শ	-10.5241
▁ভূ	-10.5241
ate	-10.5242
வாய்	-10.5244
▁शे	-10.5244
য়ো	-10.5247
▁மகன்	-10.525
निक	-10.525
दास	-10.525
▁হু	-10.525
▁वहाँ	-10.5251
▁పె	-10.5252
▁অনুবাদ	-10.5254
ాన	-10.5259
ిస్తారు	-10.5259
59	-10.5265
▁Indian	-10.5266
ப்பை	-10.5271
▁சக்தி	-10.5271
ge	-10.5273
▁46	-10.5274
▁39	-10.5274
హ్	-10.5274
▁अंग्रेजी	-10.5274
▁யூ	-10.5277
▁లే	-10.5286
লী	-10.5286
▁1950	-10.5289
▁கல	-10.5291
▁கால்	-10.5291
▁వ్యక్తి	-10.5291
▁మూల	-10.5292
னால்	-10.5293
▁விட்டு	-10.5293
ுகின்றனர்	-10.53
जि	-10.5301
ిస్తూ	-10.5302
लाल	-10.5303
மலை	-10.5305
▁प्राथमिक	-10.5307
▁নীতি	-10.5308
▁நகரம்	-10.5309
▁সমগ্র	-10.531
▁ধারণ	-10.5311
कल	-10.5312
▁கூற	-10.5312
▁வரிசை	-10.5313
me	-10.5315
▁নাট্য	-10.5315
த்துறை	-10.5318
▁আমার	-10.5322
▁पहला	-10.5324
▁पहिल्या	-10.5327
▁చదివిన	-10.5328
▁दिशा	-10.5329
▁ஊர்	-10.5331
▁పాల	-10.5333
▁1993	-10.5335
▁बुद्ध	-10.5335
▁டிசம்பர்	-10.5338
▁జనవరి	-10.5341
ল্লা	-10.5342
புரம்	-10.5342
▁২৯	-10.5343
86	-10.5343
▁বো	-10.5345
व्ह	-10.5346
ల్‌	-10.5346
னுக்கு	-10.5347
▁యా	-10.5347
▁रह	-10.5348
▁("	-10.535
▁ऐसी	-10.5351
▁పాట	-10.5352
ाशी	-10.5355
▁घाट	-10.5356
▁அலை	-10.5363
▁அவருக்கு	-10.5364
டே	-10.5364
▁বিশ্ববিদ্যালয়ে	-10.5365
▁पाच	-10.5371
సే	-10.5373
▁అంద	-10.5373
▁...	-10.5375
▁बिना	-10.5377
▁குடும்ப	-10.5377
▁दशक	-10.538
43	-10.5381
▁நாட்டு	-10.5389
ృ	-10.539
▁গণ	-10.5392
▁जग	-10.5394
▁దీన్ని	-10.5394
95	-10.5395
▁v	-10.5396
▁ரோ	-10.5398
ుకో	-10.5398
▁অংশে	-10.54
सि	-10.5402
১৩	-10.5405
64	-10.5406
sh	-10.5408
ton	-10.5409
▁अभि	-10.541
▁বিবাহ	-10.5411
▁কেবল	-10.5412
▁শিকার	-10.5413
த்தார்	-10.5415
ழ்	-10.5424
பட்ட	-10.5425
▁రంగ	-10.5426
▁प्रदर्शन	-10.543
▁1977	-10.543
పురంలో	-10.5431
▁যাওয়া	-10.5435
▁47	-10.5436
▁परिवर्तन	-10.5436
शन	-10.5436
▁২১শ	-10.5437
▁ரா	-10.5439
छ	-10.544
▁खोज	-10.5442
ार्थ	-10.5442
ol	-10.5443
▁తయారు	-10.5444
ांसाठी	-10.5444
▁तेव्हा	-10.5448
▁ইসলামী	-10.5452
▁பேச	-10.5452
▁আবদুল	-10.5455
▁কিংবা	-10.5456
mo	-10.5456
ஜ	-10.5456
▁जाए	-10.5456
▁इलाहाबाद	-10.5463
▁ஆரம்ப	-10.5463
align	-10.5463
▁কোটি	-10.5464
▁வைத்து	-10.5466
ద్ద	-10.5466
வுடன்	-10.5469
▁ஐரோப்பிய	-10.5471
▁சீன	-10.5473
ரியா	-10.5474
▁बोल	-10.5475
क्	-10.5477
चर	-10.5479
-2	-10.5482
కొండ	-10.5482
▁ন্যাশনাল	-10.5484
வுக்கு	-10.5485
▁జె	-10.5486
▁தெற்கு	-10.5488
▁நிறுவன	-10.5488
▁नई	-10.5489
▁दिली	-10.549
्यु	-10.5491
▁మత	-10.5495
▁হিন্দি	-10.5496
▁బాల	-10.5499
▁నిర్మాణ	-10.55
▁43	-10.55
▁లేవు	-10.5501
▁২০০২	-10.5501
॥	-10.5501
▁గొప్ప	-10.5502
▁এসেছে	-10.5503
▁పడ	-10.5506
99	-10.5507
▁எதிரான	-10.5507
▁చి	-10.5509
▁চাইতে	-10.551
▁చిత్తూరు	-10.551
▁দৈর্ঘ্য	-10.551
▁भाई	-10.5511
▁நாடாளுமன்ற	-10.5512
▁నెల్లూరు	-10.5515
▁సర్వ	-10.5515
চার	-10.5517
स्क	-10.5518
▁நடிகர்	-10.552
ంబ	-10.552
▁லி	-10.5521
ive	-10.5522
▁বিশ্বকাপ	-10.5524
▁மற்றொரு	-10.5524
▁অপর	-10.5525
ினர்	-10.5528
ப்படுத்த	-10.5529
ha	-10.5532
▁প্রয়োগ	-10.5536
▁सिद्धांत	-10.5536
▁প্রতিযোগিতায়	-10.5536
▁पश्चिमी	-10.5537
ka	-10.5539
▁रहने	-10.5539
▁தம்	-10.5541
▁கட்டுரை	-10.5544
▁तेल	-10.5547
▁পরিষদ	-10.5549
சிய	-10.5555
एक	-10.5556
▁t	-10.5556
▁நிலைய	-10.5557
களே	-10.5557
রাম	-10.5558
▁শিব	-10.556
▁अंक	-10.5565
▁রাজশাহী	-10.5566
▁அழைக்க	-10.5566
51	-10.5573
০০	-10.5574
▁मन्दिर	-10.5576
67	-10.5577
▁আফ্রিকার	-10.5577
▁लिखा	-10.5581
▁மோ	-10.5584
▁পরিচয়	-10.5587
▁द्वितीय	-10.5588
▁சனவரி	-10.5589
▁முடிவு	-10.5589
▁জেনারেল	-10.5591
▁२०११	-10.5593
94	-10.5593
జు	-10.5593
98	-10.5594
▁সূত্র	-10.5597
54	-10.5598
▁புள்ளி	-10.5598
▁নিচে	-10.5598
వర్	-10.56
68	-10.56
హా	-10.5605
▁பதிவு	-10.5605
த்திய	-10.5605
▁सहस्रक	-10.5606
▁பாடல்கள்	-10.5608
▁व्यवहार	-10.561
75	-10.5616
కూ	-10.5618
▁ரி	-10.5618
க்கை	-10.562
▁ஆண்டின்	-10.5622
▁జల	-10.563
▁பெயரில்	-10.5631
ம்ப	-10.5631
▁కర్నూలు	-10.5633
▁শি	-10.5635
▁विमानतळ	-10.5636
▁প্যা	-10.5641
▁तैयार	-10.5641
▁ஒருநாள்	-10.5641
▁অনু	-10.5647
▁देखील	-10.5649
▁எல்லை	-10.565
▁65	-10.5651
▁বিদ্যমান	-10.5652
హి	-10.5652
▁अली	-10.5653
ప్రాథమిక	-10.5654
▁শুধু	-10.5662
▁১৯৮০	-10.5667
▁মর্যাদা	-10.5668
▁যাওয়ার	-10.5669
চন্দ্র	-10.5669
▁நான்	-10.567
▁मैदान	-10.567
▁মুখ	-10.5676
▁२५	-10.5676
▁পূর্ণ	-10.5679
னிய	-10.5681
யைச்	-10.5683
மணி	-10.5684
70	-10.5685
నాడు	-10.5686
▁कल	-10.5687
▁জেলায়	-10.5688
▁కాక	-10.5695
▁अत्यंत	-10.5695
▁90	-10.5699
▁নং	-10.57
పేట	-10.5702
▁1971	-10.5702
ூர்	-10.5704
▁பதி	-10.5704
ుతూ	-10.5709
▁इनमें	-10.5709
▁শান্তি	-10.5712
▁வினை	-10.5713
▁পুরো	-10.5714
▁அரசின்	-10.5716
▁शतकातील	-10.572
▁কখনও	-10.5723
▁దేశం	-10.5723
ப்படி	-10.5731
লিন	-10.5733
go	-10.5735
স্তা	-10.5737
▁लहान	-10.5738
▁சர்வதேச	-10.5742
সো	-10.5747
▁১৯৭০	-10.5748
ట్ట	-10.5748
▁ड	-10.5748
▁இடங்களில்	-10.5748
ni	-10.575
▁রক্ষা	-10.5752
▁মেয়ে	-10.5755
কালে	-10.5755
▁वैज्ञानिक	-10.5757
బో	-10.5759
▁फल	-10.576
▁কাজের	-10.5761
▁వీరి	-10.5764
▁गति	-10.5768
दर	-10.577
ారెడ్డి	-10.5771
▁ज़िले	-10.5772
▁நிறுவனங்கள்	-10.5772
97	-10.5773
▁जु	-10.5776
▁কর্ম	-10.5777
▁நியூ	-10.5777
▁পণ্ডিত	-10.5779
▁தேர்வு	-10.5782
▁జూన్	-10.5786
▁రో	-10.5787
ण्यात	-10.5788
▁అమ్మ	-10.5788
ছি	-10.5788
▁मनुष्य	-10.5789
▁करत	-10.5789
▁বিবেচনা	-10.5791
▁పరి	-10.5791
ण्या	-10.5792
দু	-10.5792
▁हाथ	-10.5793
▁1985	-10.5795
▁शाळा	-10.5795
▁অবদান	-10.5796
र्ट	-10.58
ल्स	-10.5802
▁দার্শনিক	-10.5809
age	-10.5809
కుల	-10.5811
▁उत्तरी	-10.5814
▁गेला	-10.5814
▁குறி	-10.5818
▁ஆசிரியர்	-10.5819
▁நகர்	-10.582
▁খা	-10.5821
▁রু	-10.5825
▁பை	-10.5825
ஜ்	-10.5828
్య	-10.5833
▁x	-10.5833
▁স্বাস্থ্য	-10.5834
▁பல்	-10.5837
জু	-10.5838
▁ভে	-10.5838
▁आवश्यकता	-10.5839
▁வரி	-10.5842
▁३०	-10.5842
▁Z	-10.5844
▁రాజా	-10.5846
▁जनवरी	-10.5853
শী	-10.5863
▁இவருக்கு	-10.5864
▁চন্দ্র	-10.5865
▁॥	-10.5866
▁विद्यालय	-10.5868
▁বিপ্লবী	-10.5869
▁திரைப்படமாகும்	-10.5871
▁परत	-10.5872
57	-10.5874
▁আবিষ্কার	-10.5879
▁విజయవాడ	-10.5888
▁ஓட்ட	-10.5891
▁கிரேக்க	-10.5893
▁இடம்பெற்ற	-10.5894
66	-10.5899
▁அப்போது	-10.5899
▁கிராம	-10.5899
▁আফ্রিকা	-10.59
▁আদি	-10.5902
पूर्व	-10.5905
वरील	-10.5906
ండ్	-10.5908
▁con	-10.5909
▁1987	-10.591
ుతుంది	-10.591
▁பார்	-10.5914
ावरील	-10.5914
▁దీనికి	-10.5915
▁विशाल	-10.5915
69	-10.5916
▁त्यात	-10.5916
▁দেখে	-10.5918
▁নিতে	-10.592
▁షా	-10.592
▁కొత్తగా	-10.5923
▁டா	-10.5923
▁पाणी	-10.5928
হু	-10.5929
সং	-10.5932
▁ভ	-10.5932
ry	-10.5932
▁National	-10.5933
▁১৯৯৯	-10.5935
வான்	-10.5936
▁সাম্রাজ্য	-10.5939
చు	-10.5939
ுக்கும்	-10.5943
▁இடையே	-10.5944
▁பதவி	-10.5944
▁ஜெ	-10.5948
▁राजकीय	-10.5951
▁விற்பனை	-10.5952
▁சூ	-10.5953
▁இல்லாத	-10.5953
▁দ্বীপ	-10.5953
पद	-10.5956
▁ইতিহাসে	-10.5958
▁दिवशी	-10.5959
▁এশিয়ার	-10.5961
▁মনোনীত	-10.5965
▁నగరం	-10.5969
ance	-10.597
▁নির্বাচনে	-10.5972
னு	-10.5972
▁मै	-10.5978
▁संगठन	-10.598
▁स्पर्धा	-10.5982
▁রাখে	-10.5982
▁ఆరు	-10.5983
েশন	-10.5988
▁தாவர	-10.5991
ங்கா	-10.5995
im	-10.5996
41	-10.5997
▁मंत्री	-10.5998
ডে	-10.5998
ల్ల	-10.6001
▁was	-10.6001
▁செயல்	-10.6003
▁लो	-10.6003
பெ	-10.6005
ுள்ளனர்	-10.6005
▁1947	-10.6006
▁మొ	-10.6013
बर	-10.6019
▁దు	-10.602
▁योगदान	-10.602
▁கூ	-10.6021
▁त्याचा	-10.6023
▁சோதனை	-10.6027
▁(1	-10.6027
গুলিকে	-10.6028
▁नीचे	-10.6028
ிலுள்ள	-10.6029
Z	-10.603
డీ	-10.603
▁ஒத்த	-10.6033
కర	-10.6035
▁উৎসব	-10.6035
▁काँग्रेस	-10.6037
▁నలుగురు	-10.6041
ிருந்தார்	-10.6043
▁Mo	-10.6046
స్ట్	-10.6047
▁আম	-10.6049
▁সক্রিয়	-10.6051
▁এটিকে	-10.6052
गत	-10.6053
▁கருதப்படுகிறது	-10.6055
▁কর্মী	-10.6055
▁টাকা	-10.6056
▁নিয়ম	-10.6059
▁நடவடிக்கை	-10.606
▁సో	-10.6063
ுகின்றது	-10.6063
பூ	-10.6068
▁সর্বাধিক	-10.607
▁అనకాపల్లి	-10.6073
ard	-10.6078
▁చేయడం	-10.6083
▁ম্যাক	-10.6084
ుకొని	-10.6086
▁গ্রুপ	-10.6088
▁১৯৯৬	-10.6089
▁सप्टेंबर	-10.6091
ष्ट	-10.6095
▁విజయ	-10.6097
ম্প	-10.6097
▁যাবে	-10.6102
ரூ	-10.6103
▁प्रभावित	-10.6105
▁కనుక	-10.6106
▁அவரை	-10.6109
▁त्रि	-10.6109
▁গুণ	-10.6112
▁York	-10.6113
▁বিন	-10.6113
▁আয়	-10.6114
▁41	-10.6117
▁স্ব	-10.6117
ங்களாக	-10.6118
▁सहायता	-10.612
▁सरकारी	-10.612
▁वै	-10.6121
ाना	-10.6123
▁దాదాపు	-10.6124
ল্ড	-10.6126
▁वर्षों	-10.6128
पो	-10.6136
▁1986	-10.6136
ன்ஸ்	-10.6136
▁భాగంగా	-10.6137
▁টু	-10.6139
▁केल्या	-10.615
▁ఇంకా	-10.6152
▁केन्द्र	-10.6154
▁শতাব্দীতে	-10.6155
▁উপরে	-10.6155
▁அறிய	-10.6158
▁வட்ட	-10.6162
▁పాటలు	-10.6163
▁విడుదల	-10.6166
னியா	-10.6167
▁पूरा	-10.6167
▁இருக்கலாம்	-10.617
▁চীনের	-10.6171
▁మరో	-10.6172
▁వ్యాసాలు	-10.6173
▁निर्णय	-10.6179
ంగ్	-10.6179
▁சராசரி	-10.618
▁49	-10.6181
निया	-10.6182
▁মৌলিক	-10.6182
▁अभी	-10.6183
▁पूरे	-10.619
▁చంద్ర	-10.6191
▁পার্টি	-10.6192
▁কর্মকর্তা	-10.6195
ळा	-10.6197
సె	-10.6197
▁विश्वास	-10.6201
ba	-10.6202
▁పు	-10.6208
▁ఖ	-10.6208
▁মাইল	-10.6208
▁வரலாற்று	-10.6209
కాల	-10.6212
క్స్	-10.6213
ంచి	-10.6214
▁ఎన్	-10.6219
▁காணப்படுகின்றன	-10.6221
▁நோ	-10.6222
ड़ा	-10.6225
▁குறித்து	-10.623
▁புகழ்	-10.6232
▁தொடக்க	-10.6232
ரால்	-10.6232
▁కట్ట	-10.6233
▁மொ	-10.6234
▁१९	-10.6234
▁55	-10.6234
ును	-10.6236
▁Le	-10.6237
▁স্বীকৃতি	-10.6238
▁ঠিক	-10.6238
▁প্রচুর	-10.6238
▁होत्या	-10.624
▁সমান	-10.6245
▁শক্তিশালী	-10.6245
థ	-10.6249
▁রক্ত	-10.625
▁செல்	-10.625
নু	-10.6253
▁சந்தை	-10.6253
ుట	-10.6254
▁गांव	-10.6256
▁विरोध	-10.626
▁தங்க	-10.6263
▁அவர்களின்	-10.6264
जन्म	-10.6267
ेशन	-10.6268
▁লু	-10.627
▁चे	-10.627
▁मेल	-10.6271
▁చేస్తారు	-10.6273
▁संस्कृति	-10.6273
▁ভাল	-10.6277
্‌স	-10.6278
த்திற்கான	-10.6283
▁இயக்கத்தில்	-10.6284
স্টার	-10.6284
‌కు	-10.6286
வந்த	-10.6287
শীল	-10.6288
lu	-10.629
▁ఫిబ్రవరి	-10.629
ana	-10.629
৫০	-10.6293
ுக்கான	-10.6296
யாகவும்	-10.63
हर	-10.63
▁रो	-10.6306
▁अधिकारी	-10.6306
▁থাকার	-10.6307
▁আমেরিকার	-10.6308
▁অন	-10.631
▁আরেকটি	-10.6311
▁குறை	-10.6312
ించాడు	-10.6313
▁घेऊन	-10.6315
पि	-10.6315
▁నియోజకవర్గం	-10.6318
▁53	-10.6318
▁ছাড়াও	-10.6319
▁চীন	-10.6322
▁कर्नाटक	-10.6324
ांग	-10.6325
▁are	-10.6326
ేందుకు	-10.633
▁मुस्लिम	-10.6336
▁महामार्ग	-10.6337
▁नए	-10.6343
▁উঠে	-10.6344
‌ను	-10.6345
▁पासून	-10.6346
▁२००८	-10.6346
▁పాడేరులోనూ	-10.6352
▁এক্স	-10.6352
ांपैकी	-10.6356
▁তু	-10.6357
▁58	-10.6362
யிட	-10.6362
▁సమ	-10.6364
▁தொகுப்பு	-10.6364
▁গ্রিক	-10.6366
▁সফল	-10.6367
▁हिस्सा	-10.6369
▁బొ	-10.6369
▁St	-10.6369
90	-10.6376
▁பொதுவான	-10.638
▁নিয়োগ	-10.6383
▁எனப்	-10.6387
▁পশ্চিমবঙ্গ	-10.6387
ত্র	-10.6387
▁அதனை	-10.6389
di	-10.6389
-1	-10.6389
▁नेतृत्व	-10.639
▁अन	-10.6392
রিয়া	-10.6392
▁सुधार	-10.6394
▁আইসিসি	-10.6394
▁1972	-10.6397
▁1983	-10.6398
▁চ্যানেল	-10.6399
▁ছয়	-10.6401
ঘ	-10.6401
▁আলোচনা	-10.6405
▁সেন্ট	-10.6406
ai	-10.6408
ంటి	-10.6408
▁पड़ा	-10.6408
▁নিজেদের	-10.6417
▁গু	-10.6418
▁1979	-10.642
▁চি	-10.642
▁1988	-10.6422
▁सुंदर	-10.6422
▁कृषि	-10.6422
▁தெ	-10.6424
▁বন্দর	-10.6424
▁आंदोलन	-10.6426
ीच्या	-10.6427
▁अभिनय	-10.6429
▁সম্ভবত	-10.6429
▁మాత్రం	-10.643
நி	-10.6432
▁வை	-10.6433
ஹ	-10.6433
ட்டோ	-10.6433
एन	-10.6435
▁l	-10.6435
▁சேர்ந்து	-10.6438
01	-10.6439
ant	-10.644
सह	-10.6441
▁चंद्र	-10.6443
▁ডলার	-10.6445
▁अकादमी	-10.6447
ानुसार	-10.6449
▁இடை	-10.645
▁हवाई	-10.6453
▁மொழியில்	-10.6454
▁পার্থক্য	-10.6455
▁चिकित्सा	-10.6457
▁সরবরাহ	-10.6458
ig	-10.6459
▁ऑफ़	-10.6461
లూ	-10.6461
▁தமிழில்	-10.6465
कडून	-10.6465
▁জন্যে	-10.6476
▁লম্বা	-10.6478
கால	-10.6478
▁దూరములో	-10.6483
▁खो	-10.6487
▁निर्वाचन	-10.649
▁வாழ்ந்த	-10.6495
▁स्थानक	-10.6498
ुन	-10.6499
▁கிளை	-10.6501
▁பன்னாட்டுத்	-10.6503
▁தீவு	-10.6505
44	-10.6507
▁Ro	-10.6508
▁एल	-10.6516
েল	-10.6516
▁విజయం	-10.652
▁அதனால்	-10.652
▁ম্যা	-10.652
88	-10.6521
▁ब्राह्मण	-10.6521
▁सत्ता	-10.6524
▁నాటక	-10.6528
▁நிர்வாக	-10.6529
▁आया	-10.6531
▁छोड़	-10.6531
▁భ	-10.6533
▁செல்வ	-10.6535
▁దర్శకుడు	-10.6536
▁अंतर्गत	-10.6541
81	-10.6544
▁न्याय	-10.6544
▁స్థానిక	-10.6547
▁গ্রীষ্মকালীন	-10.6548
▁करें	-10.6548
▁রেখে	-10.6549
▁रहती	-10.655
▁தரவு	-10.6551
▁క్షేత్రం	-10.6552
▁జీవ	-10.6552
▁నారాయణ	-10.6555
००	-10.6556
▁ऊर्जा	-10.6558
▁निर्मिती	-10.656
▁இடையில்	-10.656
▁কৃষ্ণ	-10.6561
▁వ్యాసాల	-10.6566
▁घंटे	-10.6566
▁நிகழ்ச்சி	-10.657
బడ్డాయి	-10.6572
ंमध्ये	-10.6572
েস	-10.6573
▁சுதந்திர	-10.6574
▁২০১৭	-10.6575
▁నిజామాబాద్	-10.6577
▁করছেন	-10.6578
టే	-10.6579
▁पहचान	-10.6581
▁కలిపి	-10.6581
▁सहित	-10.6582
▁நவீன	-10.6582
टो	-10.6585
▁সুবিধা	-10.6586
▁প্রক্রিয়া	-10.6586
மான்	-10.6586
71	-10.6589
▁బో	-10.659
▁वीर	-10.659
गर	-10.6592
▁தாய்	-10.6592
▁వేద	-10.6593
▁এসব	-10.6595
ইউ	-10.6598
ill	-10.6598
▁கிமீ	-10.66
▁மிகப்	-10.6601
▁ওয়েবসাইট	-10.6602
▁நடு	-10.6602
▁प्रश्न	-10.6603
▁వెళ్ళి	-10.6603
▁দূরে	-10.6607
▁ஜான்	-10.6607
वें	-10.661
▁विद्युत	-10.661
▁அதிகமான	-10.6611
▁నిర్మాత	-10.6613
▁నేను	-10.6616
▁पहिले	-10.6617
gu	-10.6622
▁மரபு	-10.6622
ாளர்	-10.6622
▁घेतला	-10.6622
▁যাদের	-10.6623
పె	-10.6623
▁అంత	-10.6625
▁जाति	-10.6627
▁భాగం	-10.6631
▁இசையமைத்த	-10.6631
రియా	-10.6638
▁মূর্তি	-10.6641
न्त	-10.6642
▁পদে	-10.6645
▁इनका	-10.6648
▁চীনা	-10.6651
▁వస్తుంది	-10.6653
ण्याची	-10.6653
▁இலங்கையில்	-10.6654
▁বোর্ড	-10.6655
]]	-10.6655
న్స్	-10.6656
▁நெ	-10.6656
▁चा	-10.6657
▁1978	-10.6658
▁உடன்	-10.6659
▁ज्यादा	-10.6659
▁इंग्रजी	-10.6659
▁ধ্বংস	-10.667
ঙ্গা	-10.6673
மொழி	-10.6674
▁यादी	-10.6675
▁అందులో	-10.6677
▁இன்று	-10.6678
▁कार	-10.6684
▁స్వాతంత్ర్య	-10.6686
▁তথা	-10.6686
▁పెద	-10.6687
▁বন্ধু	-10.6689
▁காந்தி	-10.6692
ical	-10.6694
যোগ্য	-10.6694
est	-10.6696
▁ম্যাচ	-10.6696
▁అవార్డు	-10.6697
▁నాటికి	-10.67
முக	-10.6702
▁बोली	-10.6709
▁বয়স	-10.6709
▁கண்	-10.6714
னம்	-10.6716
▁அடுத்து	-10.6717
▁பகுதிகள்	-10.6719
▁যোগদান	-10.6722
స్థ	-10.6723
va	-10.6724
▁बहु	-10.6727
బ్బ	-10.6728
▁திருத்தந்தை	-10.673
▁উদ্দেশ্য	-10.6732
▁1975	-10.6733
▁मिनट	-10.6735
▁जॉन	-10.6736
▁2019	-10.6739
▁உறுப்பினர்	-10.6745
▁সান	-10.6746
▁पवित्र	-10.6751
▁सामना	-10.6752
▁స్థానంలో	-10.6752
গুলোকে	-10.6753
▁51	-10.6762
▁கான்	-10.6763
77	-10.6763
రామ	-10.6764
▁राष्ट्रपति	-10.6764
ভো	-10.6767
▁நிறுத்த	-10.6768
নীয়	-10.6768
▁योग्य	-10.677
ణి	-10.6772
▁অন্যদিকে	-10.6772
▁नर	-10.6772
▁৪০	-10.6772
▁தள	-10.6773
पन	-10.6774
▁তো	-10.678
▁প্রশিক্ষণ	-10.6781
గానే	-10.6783
▁இராணுவ	-10.6783
▁कपूर	-10.6785
no	-10.679
ুয়া	-10.6791
மாகவும்	-10.6797
▁वृद्धि	-10.6797
ించారు	-10.6801
▁৩১	-10.6802
పతి	-10.6803
▁देण्यात	-10.6806
▁உள்ளிட்ட	-10.6808
রূপ	-10.681
▁ఈమె	-10.6812
ஆர்	-10.6812
▁ছড়িয়ে	-10.6812
डि	-10.6814
▁পাল	-10.6815
१८	-10.6815
archive	-10.6816
▁তেল	-10.6818
▁টুয়েন্টি২০	-10.682
▁அருகில்	-10.6821
-3	-10.6824
▁কাহিনী	-10.6826
▁1982	-10.6831
91	-10.6831
களாகும்	-10.6831
▁మానవ	-10.6834
వాడ	-10.6838
▁अशोक	-10.6838
▁மாநிலத்தில்	-10.6839
▁নির্ভর	-10.6839
▁२०१०	-10.684
▁சூலை	-10.684
यन	-10.6841
▁स्थानीय	-10.6841
सो	-10.6842
▁फ़	-10.6842
21	-10.6844
▁বিল	-10.6846
▁உடைய	-10.6847
यी	-10.6847
▁পণ্য	-10.6848
జన	-10.6849
▁पंच	-10.6849
▁பிறந்தார்	-10.685
ొ	-10.6851
▁शंकर	-10.6851
त्य	-10.6853
▁নির্ধারণ	-10.6854
▁हिन्दू	-10.6857
▁सम्मानित	-10.6859
"।	-10.6859
▁लेने	-10.6859
▁तालुक्यातील	-10.6861
▁1967	-10.6863
▁ఒకే	-10.6866
দ্য	-10.6867
▁चौ	-10.6869
মেন্ট	-10.687
ఖ	-10.687
▁திறன்	-10.6872
▁1962	-10.6873
ंच	-10.6874
center	-10.6877
ियो	-10.6878
களைச்	-10.6884
▁தொலைவில்	-10.6884
▁பல்கலைக்கழகம்	-10.6884
▁வங்கி	-10.6888
ரன்	-10.6893
৩০	-10.6893
▁1981	-10.6893
▁परिषद	-10.6894
▁ஒன்றை	-10.6901
শিক্ষাপ্রতিষ্ঠান	-10.6902
িনী	-10.6904
▁বিষয়ক	-10.6906
▁கொண்டார்	-10.6907
▁சோவியத்	-10.6911
▁अप	-10.6916
हो	-10.6917
▁150	-10.6918
▁শাসক	-10.6918
▁52	-10.6919
▁No	-10.6919
▁এমনকি	-10.6921
गढ़	-10.6925
▁সাত	-10.6926
▁அறிமுகப்படுத்த	-10.6932
▁நடத்த	-10.6934
▁దేవాలయం	-10.6936
▁64	-10.6946
▁येतात	-10.6953
▁जोशी	-10.6954
▁घेतले	-10.6958
ड्या	-10.6959
ందు	-10.6959
పూడి	-10.696
▁*	-10.6961
▁நூற்றாண்டின்	-10.6964
పాడులో	-10.6965
▁தே	-10.6966
ాపూర్లో	-10.6968
▁Ch	-10.6969
ve	-10.6969
▁পো	-10.697
▁ब्रह्म	-10.697
▁நேரத்தில்	-10.6975
▁దగ్గర	-10.6975
▁மிகப்பெரிய	-10.6977
▁ऑ	-10.6978
▁দর্শন	-10.698
▁दोन्ही	-10.6981
▁तापमान	-10.6981
▁ప్రా	-10.6983
▁দান	-10.6987
पत्र	-10.6987
▁নিজেকে	-10.6991
▁மக்களின்	-10.6992
▁गेली	-10.6995
▁అనేది	-10.6998
६	-10.6999
▁పాప	-10.7
গু	-10.7002
சம்	-10.7004
▁संचालित	-10.7008
▁जगातील	-10.701
▁বৈজ্ঞানিক	-10.701
ish	-10.7011
ుకున్న	-10.7012
▁কুমার	-10.7013
▁পদার্থ	-10.7015
▁உறுதி	-10.7016
▁चक्र	-10.7016
र्क	-10.7019
మన్	-10.7021
▁ஏற்ற	-10.7021
ated	-10.7022
స్త	-10.7023
न्न	-10.7024
▁দিয়েছিলেন	-10.7025
▁নিশ্চিত	-10.703
▁सैनिक	-10.7032
▁শো	-10.7033
▁১৯৬০	-10.7036
▁धारा	-10.7039
▁சபை	-10.704
টের	-10.7042
▁স্বামী	-10.7043
▁சூன்	-10.7048
89	-10.7049
িস	-10.705
▁পাতা	-10.705
▁कॅ	-10.7055
▁Y	-10.7057
▁చూప	-10.7057
▁কার্	-10.7058
పీ	-10.7062
▁বাণিজ্য	-10.7064
ఉ	-10.7066
ud	-10.7066
▁सके	-10.7067
▁সংরক্ষিত	-10.7068
▁এশিয়া	-10.7068
▁আমাদের	-10.7069
▁निर्मित	-10.7069
▁அமெரிக்காவில்	-10.707
রূপে	-10.7072
▁பிள்ளை	-10.7072
▁ராஜ	-10.7076
▁ఆడ	-10.7076
ধা	-10.7077
పాలెంలో	-10.7086
तु	-10.7089
▁সভাপতি	-10.709
▁महत्त्वाच्या	-10.7093
▁ধারাবাহিক	-10.7095
ac	-10.7095
▁சூரிய	-10.7097
▁அவற்றை	-10.7098
▁रोमन	-10.7099
▁நோக்கி	-10.7103
the	-10.7104
▁জাতিসংঘ	-10.7106
▁ट	-10.7107
▁ஏழு	-10.7108
▁భారతదేశంలో	-10.7109
दान	-10.711
▁घोषणा	-10.711
▁வந்தார்	-10.711
▁मान्यता	-10.711
▁কলেজে	-10.7112
▁నటుడు	-10.7116
▁சுற்றி	-10.7117
▁द्वीप	-10.7117
▁সাংবাদিক	-10.7118
களிலிருந்து	-10.7119
▁জো	-10.7123
ेश	-10.7125
ग्	-10.7128
மர்	-10.7129
▁మై	-10.713
ল্যান্ড	-10.7134
மெ	-10.7141
▁অল্প	-10.7142
னில்	-10.7148
▁படைகள்	-10.7149
▁జీవిత	-10.7151
▁வாழும்	-10.7153
▁सूत्र	-10.7153
वाडी	-10.7154
▁చైనా	-10.716
▁भाषाओं	-10.7162
74	-10.7164
▁लीग	-10.7167
কালীন	-10.7168
▁ভূমি	-10.7169
▁२१	-10.7172
మున	-10.7172
▁মন্ত্রী	-10.7174
▁రె	-10.7175
▁নাটক	-10.7178
▁ఎంతో	-10.7179
াইল	-10.7179
▁ইন্ডিয়া	-10.718
▁கிறித்தவ	-10.7182
▁উপস্থিত	-10.7183
র্ক	-10.7185
▁सदी	-10.7192
பட	-10.7195
வால்	-10.7195
▁यही	-10.7196
▁చేత	-10.7196
▁చివరి	-10.7196
அழைக்கப்படுகிறது	-10.7196
▁स्वतंत्रता	-10.7204
ान	-10.7205
▁বিজ্ঞানী	-10.7206
tic	-10.7208
வல்	-10.7208
▁புலவர்	-10.7218
ca	-10.7221
यू	-10.7223
87	-10.7224
▁பயன்பாடு	-10.7227
▁জর্জ	-10.7227
யுள்ள	-10.7228
জের	-10.7228
▁फा	-10.7233
▁टो	-10.7234
சீ	-10.7238
▁పంప	-10.7239
▁सै	-10.7241
▁त्याची	-10.7243
গে	-10.7244
▁నల్ల	-10.7245
▁सुरक्षा	-10.7245
96	-10.7245
கல்	-10.725
▁जर्मन	-10.725
पु	-10.7253
▁ஹா	-10.7253
▁১৯৯৮	-10.7253
▁महाभारत	-10.7255
▁75	-10.7257
ja	-10.7257
க்குள்	-10.7258
व्हा	-10.7263
▁आयोजित	-10.7265
▁సర్పంచిగా	-10.7266
▁अरब	-10.7266
▁আক্রান্ত	-10.7269
▁मोठा	-10.7269
▁சாலை	-10.7272
▁பருவ	-10.7273
త్ర	-10.7273
▁ஆக்க	-10.7273
▁নিরাপত্তা	-10.7273
ின்றன	-10.7274
▁எல்	-10.7275
▁येतो	-10.7277
min	-10.7279
▁दूसरा	-10.728
▁భావ	-10.7282
ন্ডার	-10.7285
▁বিমানবন্দর	-10.7287
ాం	-10.729
▁চে	-10.7291
▁খাবার	-10.7292
दु	-10.7293
▁গানের	-10.7299
▁समस्या	-10.7299
▁সফটওয়্যার	-10.73
▁సంబంధించిన	-10.7301
ঞ্চ	-10.7301
ত্ত	-10.7302
▁রঙের	-10.7302
▁अमेरिकी	-10.7304
కుడు	-10.7305
▁बाबासाहेब	-10.7308
▁२४	-10.7309
এই	-10.731
nd	-10.7311
▁उपचार	-10.7312
ేశ్వర	-10.7312
▁দেওয়ার	-10.7316
▁জায়গা	-10.7318
▁উদাহরণ	-10.732
▁Ca	-10.7322
▁कसोटी	-10.7323
ंडी	-10.7325
చ్	-10.7328
▁হো	-10.7328
▁২০১৮	-10.733
▁গাছ	-10.733
▁सुख	-10.7331
▁குடி	-10.7333
per	-10.7335
▁এখনও	-10.7336
▁शाखा	-10.7336
▁याचे	-10.7337
▁অণু	-10.7338
▁मंडळ	-10.7344
▁ప్రసాద్	-10.7345
পত্র	-10.7348
য়েল	-10.7348
▁কখনো	-10.7349
ைச்	-10.735
▁निश्चित	-10.7351
land	-10.7351
▁உட்பட	-10.7354
▁ॲ	-10.7355
▁জীবনে	-10.7356
▁திருமணம்	-10.7358
▁হ্রাস	-10.7358
52	-10.7359
ोर	-10.7359
▁Ka	-10.7359
▁अंश	-10.7362
▁ஜனவரி	-10.7362
▁প্রতিনিধিত্ব	-10.7364
▁पैदा	-10.7367
ఏ	-10.7368
▁గొ	-10.7369
▁লাইন	-10.7369
▁राजनीतिक	-10.7372
‌గా	-10.7373
▁இருந்தன	-10.7373
3)	-10.7374
▁3.	-10.7377
93	-10.7379
▁উন্নত	-10.7381
ডো	-10.7381
▁अगस्त	-10.7381
▁இரத்த	-10.7382
▁வகையான	-10.7384
ঙ্গ	-10.7384
▁అల	-10.7384
▁ভ্রমণ	-10.7384
रस	-10.7385
▁website	-10.7386
ab	-10.7387
▁ধর্মের	-10.7387
▁कहानी	-10.7387
▁குறிக்க	-10.7388
ట్టి	-10.7388
▁উক্ত	-10.7388
▁आक्रमण	-10.739
▁ஒப்பந்தங்கள்	-10.7392
▁আজ	-10.74
షి	-10.7402
▁उद्यान	-10.7405
▁சதுர	-10.7405
ার্স	-10.7406
▁हल	-10.741
িনা	-10.7411
▁সংস্কৃত	-10.7411
డంతో	-10.7414
▁বর্ণ	-10.7415
▁ঢাকার	-10.7418
▁ఒక్క	-10.7419
▁அச்ச	-10.7422
▁ఇంటి	-10.7422
▁व्यापक	-10.7423
▁இக்	-10.7424
▁वायु	-10.7424
வீ	-10.7427
▁गायक	-10.7427
▁1974	-10.7429
PM	-10.7431
▁వైపు	-10.7433
''	-10.7433
▁চ	-10.7435
▁விதி	-10.7439
বী	-10.7441
িতে	-10.7445
▁వున్న	-10.745
▁तट	-10.745
▁১৯৯১	-10.7451
▁சட்டம்	-10.7452
▁চেয়ারম্যান	-10.7453
▁চলচ্চিত্রটি	-10.7453
000	-10.7456
▁गुरू	-10.7456
▁डो	-10.7457
▁কোষ	-10.7458
গান	-10.7463
ga	-10.7466
▁மூன்றாம்	-10.7467
కర్	-10.7469
▁कवी	-10.7471
▁দাস	-10.7471
த்தைத்	-10.7472
নাম	-10.7478
ty	-10.7482
▁पटना	-10.7483
▁అప్పటి	-10.7489
▁পরিবর্তে	-10.7493
▁ছেড়ে	-10.7493
▁ব্যাপারে	-10.7495
▁Me	-10.7497
▁कर्म	-10.75
জো	-10.7502
▁శాతం	-10.7503
▁Mar	-10.7505
op	-10.7505
▁प्रस्तुत	-10.7509
க்கப்பட்ட	-10.751
▁59	-10.751
த்தைச்	-10.7512
▁অধ্যয়ন	-10.7513
▁अवस्था	-10.7515
▁প্রদেশের	-10.7522
▁சொ	-10.7523
▁খাল	-10.7524
da	-10.7524
▁பட்டம்	-10.7526
▁பன்னாட்டு	-10.7527
▁किंतु	-10.7529
▁கொண்டிருக்கும்	-10.7529
▁రాయ	-10.753
▁উৎপত্তি	-10.7533
एल	-10.7537
▁கூட்டு	-10.754
▁এশিয়ান	-10.754
▁பரவலாக	-10.7544
ింప	-10.7551
▁முன்னர்	-10.7551
▁স্নাতক	-10.7553
▁దేశంలో	-10.7553
▁கோட்டை	-10.7554
▁किन्तु	-10.7557
▁জাহাজ	-10.7559
▁तुलना	-10.7561
76	-10.7565
కల	-10.7565
▁ஆகியவற்றை	-10.7567
▁असताना	-10.7567
▁পরিচিতি	-10.757
▁పట్ట	-10.7571
கர	-10.7571
▁অধিনায়ক	-10.7572
ంగి	-10.7572
தற்காக	-10.7573
▁वी	-10.7573
▁ফেলে	-10.7574
▁পু	-10.7575
ুন	-10.7576
▁हत्या	-10.7578
মন	-10.7578
▁গ্যাস	-10.7579
▁নেওয়া	-10.758
▁टीम	-10.758
▁বেল	-10.7581
▁মিল	-10.7583
▁হবার	-10.7584
▁আলো	-10.7584
▁রস	-10.7584
▁पक्षी	-10.7586
▁সংক্রান্ত	-10.7586
▁শু	-10.7586
▁గృహాల	-10.7587
▁প্রচার	-10.7588
বন	-10.7588
▁ஆப்	-10.7588
▁সংযোগ	-10.759
▁పురస్కారం	-10.7591
▁ইসলামের	-10.7596
▁निर्	-10.7597
▁ప్రసిద్ధి	-10.7598
தாகக்	-10.76
▁500	-10.7602
▁বিজয়	-10.7605
▁కుమారుడు	-10.7606
ंडा	-10.7606
▁తు	-10.7606
▁అధికంగా	-10.7608
२०	-10.7608
इस	-10.7608
▁ஊ	-10.7611
▁ஹெ	-10.7612
ाइड	-10.7612
▁সুর	-10.7613
▁प्रतिशत	-10.7613
▁घ	-10.7618
য়াল	-10.7618
▁ত্যাগ	-10.7619
▁श्रेणी	-10.7619
▁वर्ण	-10.7623
्वा	-10.7623
▁इंग्लिश	-10.7623
శ్రీ	-10.7625
▁மீட்டர்	-10.7625
▁বছরে	-10.7627
http	-10.763
ரான	-10.7631
▁जुलाई	-10.7633
ంజ	-10.7633
▁போக்குவரத்து	-10.7635
োর	-10.7636
லர்	-10.7637
▁1948	-10.7638
▁शुद्ध	-10.7639
ரீ	-10.764
▁সৈয়দ	-10.7641
▁al	-10.7645
▁கலைஞர்	-10.7645
▁अगर	-10.7645
পাল	-10.7646
▁1969	-10.7647
▁1965	-10.7651
నని	-10.7652
▁যুক্তরাষ্ট্রে	-10.7654
▁உரு	-10.7656
▁০	-10.7656
▁পিতার	-10.7657
দো	-10.7657
▁জমিদার	-10.766
டின்	-10.7661
ழை	-10.7663
▁मई	-10.7665
▁সেনাবাহিনীর	-10.7665
▁300	-10.7668
▁ক্ষুদ্র	-10.7669
▁শহরটি	-10.7669
▁కళా	-10.767
స్తు	-10.7671
▁গুরুত্ব	-10.7672
▁শিক্ষার	-10.7673
▁प्राकृतिक	-10.7675
▁সমতল	-10.7675
▁कांग्रेस	-10.7675
▁যুগের	-10.768
▁தேர்தலில்	-10.7682
ேன்	-10.7682
▁प्रयास	-10.7685
ంటే	-10.7685
▁வசதி	-10.7686
▁মাসের	-10.7687
देश	-10.7688
▁कट	-10.7688
र्न	-10.7691
▁সংরক্ষণ	-10.7692
ிருக்க	-10.7693
62	-10.7695
▁আফ্রিকান	-10.7695
▁ఏప్రిల్	-10.7698
▁குறைவான	-10.7698
▁జయ	-10.7698
▁అలా	-10.7709
বিদ্যা	-10.7709
▁সাব	-10.7713
ించే	-10.7713
াস	-10.7714
▁छोटी	-10.7718
▁ग्रामीण	-10.7718
ுக்	-10.7721
▁लागले	-10.7731
▁व्यावसायिक	-10.7735
मेंट	-10.7736
পু	-10.7736
63	-10.7737
tra	-10.7738
▁ఉండి	-10.7741
▁హా	-10.7742
▁पर्यटन	-10.7742
▁সেনা	-10.7745
டெ	-10.7745
▁নিয়মিত	-10.7749
▁சரி	-10.7749
▁పొ	-10.775
লেন	-10.7751
গন	-10.7752
దని	-10.7754
ఎన్	-10.7756
ंगे	-10.7756
ుంది	-10.7762
▁ఏలూరు	-10.7764
72	-10.7766
▁அவன்	-10.7768
▁வைக்க	-10.777
▁আস	-10.7771
▁টেস্টে	-10.7771
స్తుంది	-10.7773
कृत	-10.7773
ஜா	-10.7773
▁டை	-10.7774
▁నగర	-10.7775
▁சின்ன	-10.7777
फा	-10.7778
▁వాటిని	-10.7779
▁மிகுந்த	-10.778
▁மன்னர்	-10.7781
▁ধ	-10.7782
▁सध्या	-10.7782
सिंह	-10.7783
▁নামেও	-10.7784
▁२२	-10.7786
▁வழக்க	-10.7787
বান	-10.7788
வகை	-10.7793
▁এগুলো	-10.7794
▁இயேசு	-10.7794
▁চূড়ান্ত	-10.7796
▁খুবই	-10.7797
▁63	-10.7798
do	-10.7801
▁সুপার	-10.7802
బీ	-10.7804
▁संघर्ष	-10.7804
वून	-10.7805
▁Bo	-10.7805
▁এটির	-10.7805
▁सूचना	-10.7809
త్వం	-10.7813
▁அல்ல	-10.7816
▁কার	-10.7817
স্ক	-10.7817
▁இருக்கின்றன	-10.782
ுவதற்காக	-10.782
▁He	-10.7823
▁প্রধানত	-10.7823
▁प्रशिक्षण	-10.7825
జె	-10.7826
▁3,	-10.7836
ানো	-10.7838
▁चरित्र	-10.7839
▁खिलाफ	-10.784
▁இவரின்	-10.7842
লাল	-10.7843
▁পরের	-10.7843
▁తాను	-10.7848
ీయ	-10.7848
ot	-10.7849
ডার	-10.7853
▁అవ	-10.7853
▁सहायक	-10.7855
मत	-10.7857
▁రోడ్డు	-10.7862
ইংরেজি	-10.7863
लर	-10.7864
పొ	-10.7867
hi	-10.7868
▁नाग	-10.7869
வராக	-10.7871
▁உள்	-10.7872
▁অস্ত্র	-10.7878
▁క్రికెట్	-10.788
▁ভিত্তিতে	-10.7882
▁নেতৃত্ব	-10.7883
▁घटक	-10.7883
▁রুশ	-10.7883
▁లి	-10.7883
▁Ra	-10.7884
▁শতকে	-10.7886
▁వీ	-10.7887
▁वर्षा	-10.7887
2)	-10.7889
▁ஆல்	-10.7891
▁தன்னுடைய	-10.7891
▁पुराण	-10.7893
கின்றன	-10.7898
▁२०१२	-10.7899
▁नागरिक	-10.7899
▁ఆలయంలో	-10.7905
▁प्रधान	-10.7908
▁कल्याण	-10.7909
▁ত্রি	-10.791
▁১৯৯২	-10.7911
▁পথে	-10.7914
▁మరొక	-10.7917
▁ముఖ్యమైన	-10.7918
▁অতিরিক্ত	-10.7919
தான	-10.792
▁জাতি	-10.7921
▁अप्रैल	-10.7922
▁সিলেট	-10.7923
▁पात्र	-10.7924
ap	-10.7925
▁పెంచ	-10.7926
▁आसपास	-10.7928
▁కోర	-10.7929
▁ఇప్పుడు	-10.7929
▁1973	-10.7929
▁எரி	-10.7932
वत	-10.7933
▁আলি	-10.7934
मधून	-10.7934
▁गोल	-10.7935
▁কোড	-10.7939
ie	-10.794
▁নিবন্ধ	-10.794
▁मुख्यमंत्री	-10.7944
▁সাই	-10.7945
▁होय	-10.7945
▁सम्मान	-10.7947
ரெ	-10.7949
তেই	-10.7949
▁1976	-10.7955
&	-10.7956
▁அத்துடன்	-10.7957
▁ছবিটি	-10.7957
▁ఎలా	-10.7961
▁वेद	-10.7961
▁யாழ்ப்பாண	-10.7963
▁সম্প্রদায়	-10.7964
78	-10.7964
▁పొంద	-10.7965
▁నాటి	-10.7965
▁उससे	-10.7965
म्ब	-10.7966
पट	-10.7969
ఎం	-10.7969
करण	-10.797
▁অর্থনীতি	-10.7972
▁அமெரிக்காவின்	-10.7972
ानंतर	-10.7973
▁মৃত্যুবরণ	-10.7974
రణ	-10.7974
▁শব্দের	-10.7978
▁পাশে	-10.7982
▁स्थापन	-10.7986
▁বাণিজ্যিক	-10.7986
▁పత్రిక	-10.7989
▁నే	-10.7993
▁முன்பு	-10.7994
▁অতিক্রম	-10.7995
▁প্রদর্শন	-10.8
गल	-10.8002
▁আঘাত	-10.8003
▁गुप्त	-10.8004
▁पद्म	-10.8004
▁72	-10.8006
யினை	-10.8009
▁ఇండియా	-10.8011
न्द	-10.8015
্ব	-10.8015
শু	-10.8016
▁1940	-10.8017
णारे	-10.8019
▁मित्र	-10.8019
▁मिली	-10.8027
▁सुर	-10.8029
▁ஆவது	-10.803
▁फ्रांस	-10.8032
▁১৯৭২	-10.8034
pa	-10.8036
▁బాబు	-10.8039
▁शादी	-10.8041
सू	-10.8041
▁न्यायालय	-10.8042
▁வயது	-10.8046
▁देख	-10.8049
▁సౌకర్య	-10.805
প্রাপ্ত	-10.8053
తారు	-10.8056
கொண்ட	-10.8059
▁Be	-10.8063
श्री	-10.8064
▁ইয়া	-10.8066
▁মিত্র	-10.8067
லம்	-10.8067
▁జన	-10.8068
▁সাহায্যে	-10.8068
▁பலரும்	-10.8068
கொ	-10.8068
▁இத்தகைய	-10.807
▁प्रसाद	-10.8071
▁পার্ক	-10.8072
▁आचार्य	-10.8076
▁56	-10.8076
▁ঘন	-10.8078
▁লীগ	-10.8081
▁ব্যবহারের	-10.8082
வெ	-10.8085
आई	-10.8085
▁প্রভাবিত	-10.8086
▁स्रोत	-10.8086
बि	-10.8087
अर	-10.8087
▁বিস্তার	-10.8089
▁বাকি	-10.8089
▁II	-10.8089
▁பொருட்கள்	-10.809
AM	-10.809
vi	-10.8091
83	-10.8094
▁வர்த்தக	-10.8095
▁Sa	-10.8095
▁ছবিতে	-10.8095
▁बांध	-10.8096
▁হওয়ায়	-10.8097
▁மண	-10.8097
లం	-10.81
▁२०१४	-10.81
▁परंपरा	-10.8101
▁తి	-10.8105
▁தோற்ற	-10.8105
pe	-10.8108
াম	-10.8109
ंवर	-10.8111
▁ஆகத்து	-10.8111
▁बैंक	-10.8112
స్తూ	-10.8115
▁समाप्त	-10.8115
▁ட	-10.8116
▁చూసి	-10.8116
▁నూనె	-10.8118
यो	-10.8118
ிலேயே	-10.8118
ధా	-10.8119
▁ஹோ	-10.812
▁1000	-10.812
▁1930	-10.8121
▁राष्ट्राध्यक्ष	-10.8121
▁लागू	-10.8124
▁தமிழ	-10.8127
▁யு	-10.813
▁भि	-10.8131
▁যুক্তি	-10.8133
▁எழுதி	-10.8134
धर्म	-10.8136
▁நிறுவ	-10.8136
▁సీ	-10.8137
మూ	-10.8137
দান	-10.8137
▁মার	-10.8138
▁एर	-10.8138
ology	-10.8139
্যু	-10.814
▁जानकारी	-10.8143
▁సత్యనారాయణ	-10.8143
▁शुरुआत	-10.8144
▁சோழ	-10.8145
▁এইচ	-10.8148
▁வெள்ளை	-10.8151
▁पांच	-10.8152
▁నంది	-10.8153
▁1956	-10.8154
▁ফে	-10.8154
▁வெவ்வேறு	-10.8155
হে	-10.8156
▁बढ़	-10.8157
ag	-10.8157
▁लगता	-10.8158
▁আকারে	-10.8158
झा	-10.8159
ஷ	-10.8162
▁மாறி	-10.8164
ப்பகுதி	-10.817
िता	-10.817
▁असलेला	-10.817
ph	-10.8171
▁సినిమాకు	-10.8172
ss	-10.8174
व्य	-10.8175
▁महत्त्व	-10.8176
▁नावाने	-10.8176
বাজার	-10.8179
▁দশ	-10.818
▁उद्देश्य	-10.8181
▁रखने	-10.8185
▁অঙ্গ	-10.8187
রের	-10.8189
ున్న	-10.8189
▁சட்டமன்றத்	-10.819
▁পাঁচটি	-10.819
▁లింగ	-10.8191
▁నిర్	-10.8192
▁বলেছেন	-10.8193
వై	-10.8194
्ल	-10.8195
▁గుడి	-10.8195
ঠ	-10.8196
▁కడప	-10.8197
्यू	-10.8197
▁तत्कालीन	-10.8197
তর	-10.8198
▁k	-10.8199
ीचे	-10.82
धा	-10.82
द्वारे	-10.8201
▁इस्तेमाल	-10.8202
▁इनकी	-10.8206
▁পূজা	-10.8208
▁ফ	-10.8209
▁கண்டுபிடிக்க	-10.821
▁ஆண்டுகளுக்கு	-10.8211
ow	-10.8212
▁রঙ	-10.8214
84	-10.8215
▁స్వ	-10.8217
02	-10.8218
▁உயர்ந்த	-10.8219
▁शासक	-10.8221
▁పే	-10.8224
लोक	-10.8226
▁సాధారణ	-10.8228
ण्याचा	-10.823
▁அழைக்கப்படும்	-10.8231
▁লিগ	-10.8231
▁भोजन	-10.8231
▁অনুমতি	-10.8232
▁আনা	-10.8233
▁শীর্ষ	-10.8233
▁वृक्ष	-10.8236
▁पुलिस	-10.824
ावे	-10.8241
▁धु	-10.8243
▁இந்தத்	-10.8244
▁হাসান	-10.8245
▁Man	-10.8248
ந்	-10.8248
ాడ	-10.8249
▁அதிகார	-10.825
▁ఆలయ	-10.825
▁असलेली	-10.825
▁১টি	-10.8252
▁স্কুলে	-10.8254
▁ব্যাটসম্যান	-10.8262
▁সামনে	-10.8265
▁अज्ञात	-10.8266
▁ঐতিহ্যবাহী	-10.8266
ுவதற்கான	-10.8266
यां	-10.8267
ஞ்சி	-10.8267
▁সিং	-10.8269
ப்படவில்லை	-10.8269
▁जोड	-10.8269
▁पंडित	-10.827
কেই	-10.8272
மின்	-10.8272
india	-10.8273
▁যন্ত্র	-10.8273
ட்டர்	-10.8278
कों	-10.8278
▁முந்தைய	-10.8279
▁মালিক	-10.8281
▁असत	-10.8281
▁परियोजना	-10.8286
ময়	-10.8286
▁திட்டம்	-10.8287
▁குருதி	-10.8287
▁हवा	-10.8289
▁ইমাম	-10.8289
▁क्लब	-10.829
ीचा	-10.829
ూరి	-10.8294
▁ভর	-10.8295
▁ఎన్నో	-10.8297
▁இதுவே	-10.8298
▁बनाए	-10.83
▁Ma	-10.8302
▁பத்து	-10.8306
▁दिखाई	-10.8306
▁విశాఖపట్నంలోను	-10.8308
ளவு	-10.8309
▁பார்க்க	-10.8309
வேண்டும்	-10.8309
▁तेथे	-10.8312
▁प्रमाणात	-10.8312
▁एंड	-10.8312
▁கவிதை	-10.8314
ளா	-10.8317
▁करीत	-10.8319
▁आदेश	-10.832
▁గాని	-10.8322
▁বৃহৎ	-10.8323
▁आग	-10.8327
प्प	-10.8329
சியா	-10.8329
▁పోటీ	-10.8329
▁एक्सप्रेस	-10.8331
८	-10.8331
▁వ్యాధి	-10.8332
िश	-10.8332
73	-10.8332
తం	-10.8334
ాపూర్	-10.8335
▁காணப்படுகிறது	-10.8337
▁ఆధునిక	-10.8344
▁కామ	-10.8345
ாள	-10.8346
▁केवळ	-10.8349
িস্ট	-10.8349
▁భూగర్భ	-10.8353
▁கீ	-10.8353
▁विष्णु	-10.8353
मर	-10.8355
▁தலைவராக	-10.836
र्द	-10.8362
82	-10.8363
र्म	-10.8363
▁গ্রেগরীয়	-10.8365
▁वस्तु	-10.8366
▁ஜே	-10.8373
▁మార	-10.8375
▁ইয়র্ক	-10.8377
பொ	-10.8377
▁ఏక	-10.8378
ிகள்	-10.8379
▁తమిళ	-10.838
▁ওয়ার্ড	-10.8382
▁दिनों	-10.8382
গি	-10.8383
योग	-10.8383
▁सफल	-10.8387
▁62	-10.8387
▁டே	-10.8387
▁ডিম	-10.8392
▁చూడ	-10.8392
▁ভুল	-10.8394
▁चेन्नई	-10.8394
న్ని	-10.8396
▁पै	-10.8396
स्प	-10.8397
▁అల్	-10.8398
▁सिर	-10.8398
▁w	-10.8403
▁নব	-10.8405
act	-10.8406
▁காரணம்	-10.8406
ங்களைப்	-10.8409
om	-10.8409
▁முனை	-10.841
ரம்	-10.8413
ிருக்கிறது	-10.8421
बाई	-10.8422
▁ভিডিও	-10.8422
▁সম্প্রদায়ের	-10.8425
िय	-10.8427
▁সরকারী	-10.8429
▁তাপমাত্রা	-10.843
▁నె	-10.844
▁দূর	-10.8441
▁কলা	-10.8442
ஹா	-10.8445
ताना	-10.8449
▁இறுதியில்	-10.845
▁मर	-10.8451
▁ল্যা	-10.8451
▁फि	-10.8451
▁फर्रुखाबाद	-10.8452
▁সার	-10.8453
▁நிறுவனத்தின்	-10.8453
▁দিনে	-10.8457
लेली	-10.8459
▁చేసారు	-10.846
▁লিখেছেন	-10.8461
▁तंत्र	-10.8462
নিয়া	-10.8462
ज्ञ	-10.8463
▁১৯৫০	-10.8464
మీద	-10.8464
▁பின்ன	-10.8465
▁यात	-10.8466
▁चुनाव	-10.8466
▁చేర్చారు	-10.8468
भाव	-10.8468
▁పూర్వ	-10.8469
▁பனி	-10.8469
▁আমরা	-10.8477
▁इन्हें	-10.8479
▁వలస	-10.8481
▁গ্রামের	-10.8484
২৫	-10.8484
রণ	-10.8487
मय	-10.8492
▁প্রবাহিত	-10.8493
▁శతాబ్దం	-10.8496
▁পাঠ	-10.8499
▁உருவாக்கப்பட்ட	-10.8499
▁उतर	-10.85
92	-10.85
▁प्रचलित	-10.8505
লিয়া	-10.8507
▁२००९	-10.8509
▁హై	-10.8512
▁টে	-10.8513
తాడు	-10.8513
▁অনুসরণ	-10.8514
▁রাসায়নিক	-10.8517
▁ஆட்ட	-10.8518
▁வானூர்தி	-10.8518
द्ध	-10.8518
▁दिए	-10.8519
▁సై	-10.8526
▁স্মৃতি	-10.8526
▁নম্বর	-10.8527
▁வார	-10.8533
गार	-10.8534
▁அமைதி	-10.8534
▁సంవత్సరంలో	-10.8535
▁स्वातंत्र्य	-10.8537
ாள்	-10.8538
▁पड़ता	-10.854
▁చరిత్రలో	-10.8542
సో	-10.8545
శ్	-10.8547
▁రోజులు	-10.8547
ணு	-10.8548
ru	-10.855
▁வருகின்றன	-10.8553
79	-10.8554
▁আঞ্চলিক	-10.8554
▁तु	-10.8558
త్తు	-10.8558
▁অস্ট্রেলীয়	-10.8558
▁மாதிரி	-10.856
▁फुट	-10.8563
ిస్తాడు	-10.8564
▁গভর্নর	-10.8567
▁संकेत	-10.8567
▁कार्यालय	-10.8568
రాజ	-10.8568
▁তালিকায়	-10.8569
ல்லா	-10.857
▁ভালো	-10.857
▁নো	-10.8571
களிடம்	-10.8572
▁கட்டிட	-10.8575
▁John	-10.8575
▁আহমদ	-10.8576
▁వ్యాపార	-10.8578
টু	-10.858
த்தான்	-10.8581
१०	-10.8584
▁भीतर	-10.8588
▁புது	-10.8588
పద	-10.8589
ஸி	-10.8591
▁st	-10.8591
▁आपले	-10.8594
বদ্ধ	-10.8595
▁আনন্দ	-10.8596
▁उत्तम	-10.8597
▁আসা	-10.8598
▁பிரெஞ்சு	-10.8599
▁தேவையான	-10.8601
ারি	-10.8602
▁সূচনা	-10.8602
প্রতি	-10.8603
▁२३	-10.8608
டல்	-10.861
ছ	-10.8611
▁गणित	-10.8611
▁1952	-10.8614
▁विद्या	-10.8614
▁கத்தோலிக்க	-10.862
▁पुस्तके	-10.8621
எடுத்துக்காட்டாக	-10.8622
টিক	-10.8624
▁দ্বি	-10.8624
দ্	-10.8628
▁எதிர்ப்பு	-10.8629
▁असल्याने	-10.863
▁ব্যর্থ	-10.8632
ide	-10.8638
యస్	-10.8641
▁কোচ	-10.8641
▁கல்	-10.8642
▁தன்னை	-10.8646
▁গে	-10.8646
றிய	-10.8647
▁చంప	-10.8648
▁राजमार्ग	-10.8648
এন	-10.8649
▁जिन	-10.8649
▁अमर	-10.8652
▁விழா	-10.8653
పల్లిలోను	-10.8654
▁देती	-10.8654
वरून	-10.8655
▁--	-10.8656
ওয়ার	-10.8658
▁எட்டு	-10.8659
▁আরবি	-10.8659
▁இலங்கைத்	-10.8659
▁ফলাফল	-10.8659
▁r	-10.8659
▁১৯৯৭	-10.866
ுமாறு	-10.8661
▁61	-10.8663
▁স্থাপিত	-10.8665
▁करणाऱ्या	-10.8667
০১	-10.8669
▁గుర్తింపు	-10.867
▁pp	-10.867
▁పార్వతీపురం	-10.8673
மார்	-10.8674
▁வெப்பநிலை	-10.8675
▁কৌশল	-10.8675
▁உருவ	-10.8677
க்களை	-10.8678
▁আমেরিকা	-10.8681
ऊ	-10.8684
▁பெயரை	-10.8684
▁हु	-10.8684
▁:-	-10.8687
▁अक्टूबर	-10.8689
மாகக்	-10.8693
▁পত্রিকা	-10.8694
▁ప్రాంతాలలో	-10.8694
▁संस्करण	-10.8696
▁যথেষ্ট	-10.8696
hu	-10.8697
▁बाग	-10.8697
one	-10.8699
ட்டில்	-10.8699
▁গতি	-10.87
▁পড়াশোনা	-10.8701
మూర్తి	-10.8704
▁அமைப்ப	-10.8707
யற்ற	-10.871
▁প্রকৌশল	-10.8712
▁एशिया	-10.8713
▁नौ	-10.8716
▁భర్త	-10.8716
▁সবুজ	-10.8716
▁समुदाय	-10.8716
▁మహ	-10.8717
த்தினை	-10.8718
▁प्रदर्शित	-10.8719
ব্য	-10.8719
याँ	-10.8721
কল	-10.8722
▁विजेता	-10.8725
ப்பர்	-10.8725
▁কমিটি	-10.8729
▁పట్టణ	-10.8729
▁অবসর	-10.8733
▁२०१६	-10.8734
পশ্চিম	-10.8736
▁ஓர	-10.8736
▁স্থাপনা	-10.8737
▁பொறியியல்	-10.8737
▁प्रो	-10.8738
वेद	-10.8739
▁२६	-10.8741
▁நடிகை	-10.8743
▁चल	-10.8745
নং	-10.8745
▁সম্মান	-10.8746
யாளர்	-10.8747
▁বিক্রি	-10.8748
▁২০১৯	-10.8751
▁येत	-10.8754
▁रोड	-10.8754
▁సినీ	-10.8757
▁সূর্য	-10.8759
▁দুর্গ	-10.876
▁जमा	-10.8761
▁स्वर	-10.8764
▁करू	-10.8765
▁కీ	-10.8769
▁தேவ	-10.8769
▁গুরু	-10.8771
ந்தா	-10.8771
▁கடைசி	-10.8772
सार	-10.8773
▁যেহেতু	-10.8773
▁পাই	-10.8774
বাস	-10.8775
జర్	-10.8775
సన్	-10.8779
▁Pro	-10.8786
▁झील	-10.8789
धर	-10.8789
▁औद्योगिक	-10.8791
▁প্রকার	-10.8794
▁న్యాయ	-10.8794
▁माँ	-10.8794
▁ধারা	-10.8795
▁పర	-10.8796
తుల	-10.8796
ah	-10.8797
▁मिळाले	-10.8806
▁খ্রিষ্টাব্দের	-10.8807
▁खास	-10.8808
▁শিরোপা	-10.8809
▁জেমস	-10.8809
▁ব্যক্তির	-10.881
▁शास्त्र	-10.8811
▁রাখেন	-10.8813
▁ISBN	-10.8816
▁প্রকৃতি	-10.8816
িম	-10.8817
மற்ற	-10.8818
▁পর্যবেক্ষণ	-10.8818
▁விடுதலைப்	-10.882
▁পরিবেশ	-10.882
▁ওয়ার্ল্ড	-10.882
िम	-10.8821
ెను	-10.8822
▁பிப்ரவரி	-10.8822
▁లక్షల	-10.8822
డో	-10.8823
▁सर्वोच्च	-10.8823
▁நேச	-10.8827
▁மேலாண்மை	-10.8827
▁প্রযোজক	-10.8827
▁పెట్ట	-10.8828
▁मिलती	-10.883
▁తప్ప	-10.8832
▁मानले	-10.8832
▁উদ্যান	-10.8832
షన్	-10.8833
▁উইলিয়াম	-10.8834
களுக்காக	-10.8837
▁1964	-10.8839
▁होतात	-10.884
▁गणेश	-10.8842
▁ম্যাচে	-10.8844
▁যুগে	-10.8848
▁समझ	-10.8849
▁లేకుండా	-10.885
ther	-10.8851
▁পবিত্র	-10.8852
▁ஜூன்	-10.8852
சன	-10.8853
▁மூன்றாவது	-10.8855
▁প্রবাসী	-10.8855
▁இப்	-10.8855
▁भवन	-10.8856
▁जान	-10.8857
▁প্রস্তুত	-10.8857
▁వేల	-10.8857
७	-10.8862
కార	-10.8863
▁मदद	-10.8864
▁संदर्भ	-10.8869
▁गिर	-10.8871
▁பௌத்த	-10.8873
▁போரில்	-10.8875
▁వారిని	-10.8876
▁संस्कृती	-10.8876
▁১৯৪৭	-10.8876
్యం	-10.8877
▁முறைமை	-10.8878
▁निकट	-10.8878
▁ব্যবসা	-10.888
▁பெர்	-10.8882
ப்படை	-10.8883
▁நாட்டில்	-10.8883
பை	-10.8885
▁সংগীত	-10.889
▁co	-10.889
▁கள	-10.889
▁যুগ	-10.8894
ములను	-10.8895
▁மெய்	-10.8896
ॉन	-10.8898
▁गावे	-10.8898
▁ইউনাইটেড	-10.89
▁দত্ত	-10.89
▁कॉ	-10.8902
▁সংবাদ	-10.8903
▁2011.	-10.8904
▁अधिकृत	-10.8908
▁পঞ্চম	-10.8909
னாக	-10.8909
▁नाहीत	-10.891
▁సత్య	-10.891
ক্ত	-10.8911
▁குல	-10.8912
▁दस	-10.8914
▁ஆங்கிலேய	-10.8915
ke	-10.8915
वली	-10.8918
▁প্রথমবারের	-10.8918
▁रू	-10.8921
▁শুরুতে	-10.8922
▁ताप	-10.8922
ব্	-10.8924
▁বিদ্যুৎ	-10.8925
▁கரை	-10.8928
▁விசை	-10.8929
▁చేయడానికి	-10.8931
▁आए	-10.8932
▁संरक्षण	-10.8932
▁ডিগ্রী	-10.8932
▁স্বাধীনতার	-10.8935
▁எடுத்து	-10.8935
▁পরিসংখ্যান	-10.8937
▁टेनिस	-10.8937
▁৬০	-10.8941
▁किल्ला	-10.8942
▁కం	-10.8943
▁শিখ	-10.895
▁অভিযোগ	-10.8953
▁প্রতিরোধ	-10.8956
▁खुद	-10.8957
▁இன்னும்	-10.8958
▁याचा	-10.896
▁புகழ்பெற்ற	-10.896
িল	-10.8963
भर	-10.8963
▁वातावरण	-10.8964
▁बताया	-10.8965
▁প্রত্যেক	-10.8966
▁நீர	-10.8966
मल	-10.8968
▁அமையும்	-10.897
ांक	-10.8974
▁வெளியீடு	-10.8976
▁कल्पना	-10.8977
▁h	-10.8977
మునకు	-10.8978
▁তাহলে	-10.8978
▁కుల	-10.8979
▁మాజీ	-10.8981
▁घोषित	-10.8984
▁বাধ্য	-10.8984
तः	-10.8984
▁రోజున	-10.8985
▁ஆனது	-10.8987
▁அதிகம்	-10.8987
▁முன்னணி	-10.8988
▁ముఖ్యంగా	-10.8989
லிய	-10.8993
▁সেন্টার	-10.8994
ாவின்	-10.8996
▁आयोजन	-10.8996
▁पंतप्रधान	-10.8998
les	-10.8999
▁সীমানা	-10.9002
▁याच	-10.9003
లోకి	-10.9005
▁அரசியல்வாதி	-10.9006
Q	-10.9007
நில	-10.9008
▁85	-10.9011
▁ডাক	-10.9011
▁ইহুদি	-10.9012
▁১৯৮৪	-10.9012
▁சொந்த	-10.9014
▁பாரம்பரிய	-10.9014
েক	-10.9015
▁జో	-10.9016
-4	-10.9018
▁टाक	-10.9018
ran	-10.9023
లేని	-10.9025
▁जिल्ह्या	-10.9026
▁మాట	-10.9029
▁পোশাক	-10.9029
ृ	-10.9032
▁தயாரிப்பு	-10.9034
▁ইসলামি	-10.9034
▁क्रम	-10.9035
िट	-10.9036
▁महात्मा	-10.9039
ভে	-10.904
ுவர்	-10.9041
▁கூறினார்	-10.9041
నియా	-10.9042
▁ஜோ	-10.9043
ాపురం	-10.9043
▁यूरोप	-10.9043
▁2018	-10.9044
রিক	-10.9046
▁राजकारणी	-10.9047
▁বিবেচিত	-10.9048
▁வானொலி	-10.9049
▁ট্রেন	-10.9054
▁என்ன	-10.9054
▁ఫా	-10.9054
▁অভিনয়ের	-10.9056
▁মুক্তিযোদ্ধা	-10.906
▁ఆంగ్ల	-10.906
▁কল	-10.906
▁রোড	-10.906
ப்படாத	-10.9061
ைய	-10.9062
▁ভিত্তিক	-10.9062
▁पद्धती	-10.9063
ায়ন	-10.9064
▁ইন্ডিয়ান	-10.9067
▁உறுப்பு	-10.9067
▁অবশ্য	-10.907
▁రాజధాని	-10.9071
▁पीछे	-10.9071
▁1968	-10.9071
த்திர	-10.9072
▁பார்வை	-10.9073
▁টিভি	-10.9074
ळ्या	-10.9074
ுகின்ற	-10.9075
▁দেবতা	-10.9078
▁முடி	-10.9079
▁অবস্থানের	-10.9079
टन	-10.9081
▁ग्रह	-10.9081
2,	-10.9085
దేవి	-10.9085
சூ	-10.9089
▁শত	-10.9091
▁साहित्यिक	-10.9096
த்தன்மை	-10.9096
ப்போ	-10.9098
▁సహా	-10.9098
টেন	-10.9099
వరంలో	-10.9101
▁समर्थन	-10.9101
▁दास	-10.9102
कू	-10.9106
ore	-10.911
कुल	-10.9112
▁எழுத்தாளர்கள்	-10.9112
▁সাহিত্যিক	-10.9113
▁পরামর্শ	-10.9113
వె	-10.9116
ஊ	-10.9119
▁পড়েন	-10.9119
▁కేవలం	-10.9123
▁फक्त	-10.9123
▁सौ	-10.9124
▁১৯৭৫	-10.9126
▁নেটওয়ার্ক	-10.9128
▁দেহ	-10.9132
▁गट	-10.9132
▁नो	-10.9141
▁বিকাশ	-10.9143
▁1945	-10.9145
▁வாய்ந்த	-10.9146
▁चालू	-10.9147
▁ex	-10.9148
▁कोलकाता	-10.9148
ల్లా	-10.9148
▁ఏడు	-10.9149
▁తేదీ	-10.915
कारी	-10.9152
▁व्याख्या	-10.9153
▁বসু	-10.9158
▁ష	-10.9162
ৃ	-10.9162
▁প্রোগ্রাম	-10.9163
▁অভিযান	-10.9163
▁জমি	-10.9167
घर	-10.9169
▁পক্ষ	-10.9169
▁திசம்பர்	-10.9171
▁లాంటి	-10.9173
▁पाँच	-10.9174
▁கட்டி	-10.9177
শ্রেণীর	-10.9178
▁विरुद्ध	-10.9178
▁প্রকল্প	-10.9179
விய	-10.918
ుటకు	-10.918
▁অসম	-10.9181
க்கம்	-10.9182
▁রেডিও	-10.9182
லீ	-10.9184
த்துக்	-10.9184
ach	-10.9185
ung	-10.9187
▁प्रारंभ	-10.9187
▁পার্টির	-10.919
स्थान	-10.9197
▁1957	-10.9198
▁ல்	-10.9203
বর	-10.9204
எல்	-10.9207
ుకున్నారు	-10.9207
▁వెళ్ళ	-10.921
▁উপজেলায়	-10.9212
ल्ला	-10.9214
முள்ள	-10.9216
▁கீழே	-10.9217
ci	-10.9218
▁இறந்த	-10.9218
able	-10.9218
▁போராட்ட	-10.9219
▁पार्क	-10.922
▁2017	-10.922
▁प्रतिमा	-10.9222
ுடைய	-10.9222
▁கிரிக்கட்	-10.9222
దేశ	-10.9223
our	-10.9229
ఘ	-10.9229
▁अनुसंधान	-10.9231
▁হ্যারি	-10.9234
▁বোন	-10.9235
▁ইস্ট	-10.9236
net	-10.9237
▁কাছাকাছি	-10.924
গ্	-10.9241
ফার	-10.9243
wa	-10.9248
▁आरंभ	-10.9249
५०	-10.9249
▁दृश्य	-10.9249
படுத்த	-10.9249
▁ஏற்படுத்த	-10.925
த்திற்கும்	-10.9254
▁68	-10.9256
▁শ্রেণী	-10.9261
▁வீரர்கள்	-10.9262
▁লো	-10.9264
▁இர	-10.9264
ous	-10.9265
▁বিহার	-10.9266
▁கொடுக்க	-10.9266
▁మొట్టమొదటి	-10.927
▁संविधान	-10.927
▁కథా	-10.9272
▁மாகாண	-10.9272
▁அக்	-10.9275
ইং	-10.9276
ஓ	-10.9277
right	-10.9277
▁মায়ের	-10.9277
▁வான்	-10.9279
▁যাকে	-10.9281
▁பண	-10.9281
्यात	-10.9283
▁নামটি	-10.9283
▁ஜா	-10.9285
▁গভীর	-10.9285
▁ति	-10.9286
▁ఫ	-10.9287
▁பகுதியாக	-10.929
▁மாற்றம்	-10.929
▁दशकातील	-10.929
▁शब्दों	-10.9292
▁நோபல்	-10.9293
▁மீன்	-10.9296
▁కంపెనీ	-10.9297
▁నిర్మల్	-10.9298
▁அனுப்ப	-10.9298
▁సముద్ర	-10.93
▁प्रचार	-10.9302
▁দৈনিক	-10.9302
शील	-10.9304
▁মেডিকেল	-10.9307
▁जंक्शन	-10.9307
▁54	-10.9307
▁ప్రజా	-10.9308
▁ரே	-10.9315
▁கப்பல்	-10.9316
▁আসছে	-10.9316
▁ரெ	-10.9317
▁ট	-10.9319
▁১৯৯৪	-10.9319
▁रासायनिक	-10.9321
▁छोटा	-10.9321
▁আব্দুল	-10.9321
bo	-10.9322
▁শেষের	-10.9322
▁অ্যালবাম	-10.9324
sa	-10.9324
▁उत्सव	-10.9326
▁সর্বপ্রথম	-10.9326
▁ஜூலை	-10.9326
▁মহিলাদের	-10.9328
▁बै	-10.9328
▁কমিউনিস্ট	-10.9331
▁বাড়িতে	-10.9331
▁செய்யப்பட்டது	-10.9338
था	-10.9339
कला	-10.934
end	-10.934
▁पहुँच	-10.9341
▁புரட்சி	-10.9343
▁வைத்த	-10.9343
▁ঐতিহ্য	-10.9344
த்திற்காக	-10.9349
▁గ్రామీణ	-10.935
▁রাখার	-10.935
▁परीक्षा	-10.935
▁সংঘটিত	-10.935
▁ठीक	-10.935
▁இம்	-10.9352
▁সঠিক	-10.9352
र्त	-10.9354
▁महादेव	-10.9355
▁चीनी	-10.9356
▁বরং	-10.9356
▁परीक्षण	-10.9359
▁భారతదేశం	-10.9359
▁মেলা	-10.936
▁মুক্তিযুদ্ধ	-10.936
▁లోకి	-10.9363
▁போன்று	-10.9364
▁মানসিক	-10.9364
▁குண	-10.9365
▁అత్యధిక	-10.9367
েশ্বর	-10.9368
▁संपादक	-10.9369
▁স্থায়ী	-10.9372
▁அறிவு	-10.9375
మల	-10.9378
முனை	-10.9378
▁அவ்வ	-10.9378
▁प्यार	-10.9379
పడ	-10.938
▁असेल	-10.9383
▁সংখ্যক	-10.9383
▁London	-10.9384
▁कोर	-10.9385
ाबाद	-10.9386
▁Official	-10.9388
▁२००६	-10.939
▁अत	-10.9391
ফুট	-10.9393
▁முன்ன	-10.9394
▁வாங்க	-10.9395
▁ఆగస్టు	-10.9396
od	-10.9397
ata	-10.9397
ुर	-10.9397
▁महत्व	-10.9398
नाम	-10.9399
দী	-10.9399
গড়	-10.9402
▁తె	-10.9403
▁পেয়ে	-10.9405
▁திரும்ப	-10.9407
res	-10.9408
▁பண்டைய	-10.9408
▁সিংহ	-10.9408
▁66	-10.9408
▁ஏரி	-10.941
▁তারিখ	-10.9411
▁స్త్రీ	-10.9412
▁याची	-10.9413
▁గారి	-10.9413
▁நேர்	-10.9413
▁புவி	-10.9414
ுவதாக	-10.9417
றா	-10.9418
সেন	-10.9422
▁1966	-10.9423
▁কংগ্রেস	-10.9424
யியல்	-10.9424
ிறார்	-10.9426
पति	-10.9426
▁செயல	-10.9427
చె	-10.9427
▁நேரம்	-10.9434
৪০	-10.9435
▁नष्ट	-10.9436
▁மூ	-10.9439
▁ডা	-10.9439
▁অল	-10.9439
▁என்றால்	-10.944
▁कप	-10.9444
▁குழந்தைகள்	-10.9447
▁అనకాపల్లిలోను	-10.9448
▁देखने	-10.9451
▁கட்டுப்படுத்த	-10.9451
▁स्वतः	-10.9451
▁వివాహం	-10.9454
▁জনপ্রিয়তা	-10.9454
▁బు	-10.9455
▁शास्त्रीय	-10.9455
▁గాలి	-10.9455
▁ইন্টারনেট	-10.9456
▁align	-10.9456
▁प्रयुक्त	-10.9457
▁இதய	-10.9458
కాలు	-10.9459
▁கண்டு	-10.9459
ర్థ	-10.9459
▁कानून	-10.946
▁উৎপন্ন	-10.9461
▁दत्त	-10.9461
্ম	-10.9462
▁கழகம்	-10.9464
▁वेळी	-10.9466
▁वर्षी	-10.9472
▁1963	-10.9479
চর	-10.9482
যেমন	-10.9483
▁சேர்த்து	-10.9483
▁தூ	-10.9484
▁জীব	-10.9486
▁பொருள	-10.9488
২৩	-10.9488
▁81	-10.949
▁সিরিজ	-10.949
▁বেড়ে	-10.9495
▁इस्लाम	-10.9496
▁टे	-10.9497
▁১৯৮৬	-10.9498
வன	-10.9499
▁घेतली	-10.9501
▁ব্যবধানে	-10.9505
ত্	-10.9505
▁పైగా	-10.9509
▁बल्कि	-10.9509
ారని	-10.951
▁पाय	-10.9511
▁தொடருந்து	-10.9513
▁विक्रम	-10.9516
काम	-10.9516
▁புத்தக	-10.9517
▁১৯৮৩	-10.952
▁শে	-10.9521
▁এসময়	-10.9522
ेट	-10.9523
▁ఆది	-10.9524
.5	-10.9526
▁বাই	-10.9526
ழு	-10.9527
▁యుద్ధ	-10.9531
▁পর্বত	-10.9534
▁চাকরি	-10.9535
্সের	-10.9536
यु	-10.9536
▁சை	-10.9538
▁বিশ্লেষণ	-10.9543
▁पुन्हा	-10.9543
▁ম্যান	-10.9544
▁पालन	-10.9546
▁முதன்	-10.9547
▁बर	-10.9547
▁வெளியிட்ட	-10.9548
▁చక్రవర్తి	-10.9548
ணம்	-10.9548
ూర్	-10.9551
োয়া	-10.9553
▁नेटवर्क	-10.9553
ப்பொருள்	-10.9553
जू	-10.9554
▁चरण	-10.9555
▁२७	-10.9555
▁अक्सर	-10.9558
▁ঘোষ	-10.9558
▁1959	-10.9562
तम	-10.9562
▁[[	-10.9563
வெளி	-10.9563
au	-10.9564
▁অস্তিত্ব	-10.9565
गिरी	-10.9565
ట్‌	-10.9566
▁పంట	-10.9566
▁केलेले	-10.9566
▁নিষিদ্ধ	-10.9568
▁इंग्लंड	-10.9569
▁సూర్య	-10.9569
▁120	-10.9571
▁கன	-10.9573
এল	-10.9573
▁নির্মাণের	-10.9574
▁ज्ञात	-10.9577
▁ఉంచ	-10.9578
▁अतिशय	-10.9578
si	-10.9578
▁மதிப்ப	-10.9581
▁చెయ్య	-10.9581
▁সর্বশেষ	-10.9582
▁పిలుస్తారు	-10.9583
▁தாக்குதல்	-10.9583
▁অপ	-10.9585
াই	-10.9586
▁ஏனைய	-10.9587
▁ఈనాడు	-10.9589
ஷன்	-10.959
▁ஆன்	-10.9591
పాల	-10.9592
▁ఊ	-10.9592
▁निकाल	-10.9592
gen	-10.9592
▁శతాబ్దంలో	-10.9594
▁பெயர	-10.9596
▁கருத	-10.96
ారం	-10.96
▁பயண	-10.96
চিত্র	-10.9607
▁निम्न	-10.9607
ட்டின்	-10.9607
োস	-10.9608
ence	-10.9609
▁இறை	-10.961
▁నాడు	-10.9611
▁धाव	-10.9612
▁இல்லாமல்	-10.9613
▁మార్	-10.9615
▁வெளிப்படுத்த	-10.9617
‘	-10.9623
▁மழை	-10.9625
▁गाय	-10.9626
▁தகுதி	-10.9627
வார்	-10.9628
▁1961	-10.9629
▁स्वास्थ्य	-10.9633
▁மென்பொருள்	-10.9634
▁அண்ட்	-10.9634
▁लक्ष्य	-10.9634
▁नेपाल	-10.9634
रिक	-10.9635
वाला	-10.9637
▁কাউন্টি	-10.9638
▁not	-10.9638
▁বোঝায়	-10.964
ற்க	-10.964
▁தொடங்கியது	-10.9641
गन	-10.9641
▁సమీపంలో	-10.9643
▁হারিয়ে	-10.9647
ஸின்	-10.9651
▁ग्रेगोरी	-10.9651
▁পাশ	-10.9652
▁திசை	-10.9654
மர	-10.9657
▁দৃশ্য	-10.9658
▁इत्यादि	-10.9661
▁கொண்டாட	-10.9661
వో	-10.9662
▁দিয়েছেন	-10.9664
▁ఇక్కడి	-10.9665
▁करतो	-10.967
▁नी	-10.9671
▁নেয়া	-10.9672
▁వేరుశనగ	-10.9676
েজ	-10.9677
মিন	-10.9679
పాటి	-10.9681
▁வீ	-10.9682
द्य	-10.9682
थे	-10.9683
ंध	-10.9684
▁১৯৯৫	-10.9684
▁సభ్యులు	-10.9685
▁గాంధీ	-10.9686
▁प्रतीक	-10.9687
▁మల్ల	-10.969
▁विस्तृत	-10.9691
▁காற்று	-10.9692
णारा	-10.9692
▁প্রেসিডেন্ট	-10.9693
▁होऊन	-10.9694
▁नीति	-10.9696
हून	-10.9699
▁महासागर	-10.9701
▁పది	-10.9704
▁जिन्हें	-10.9706
▁शा	-10.9713
▁आदर्श	-10.9713
▁மிக்க	-10.9714
▁Ba	-10.9714
▁देवता	-10.9717
ులైన	-10.9717
▁விளம்பர	-10.9719
▁डाल	-10.9721
▁जिसकी	-10.9722
▁निवड	-10.9723
▁কাউন্সিল	-10.9723
ंदा	-10.9724
▁কঠিন	-10.9726
▁சண்டை	-10.9726
वल	-10.9726
েট	-10.9726
▁आगरा	-10.9728
▁निधन	-10.9728
▁சர்	-10.9728
▁అప్పుడు	-10.9731
लैंड	-10.9731
-18	-10.9732
▁ఇవ్వ	-10.9732
மிக்க	-10.9733
▁சட்டமன்ற	-10.9734
विज्ञान	-10.9736
▁गृह	-10.9738
পতি	-10.9738
ম্	-10.9738
▁బే	-10.974
▁நாக	-10.974
▁गैर	-10.9742
▁சைவ	-10.9743
▁মর	-10.9745
धार	-10.9749
▁থাকবে	-10.975
▁கடன்	-10.9751
▁விகிதம்	-10.9753
▁তড়িৎ	-10.9756
▁রবার্ট	-10.9756
▁ఎల్	-10.976
లై	-10.976
▁২য়	-10.9763
▁रक्षा	-10.9763
రాయ	-10.9765
▁அவர்களது	-10.9766
▁அமைக்கப்பட்ட	-10.9766
▁మిగిలిన	-10.9767
▁प्रवाह	-10.9767
లాండ్	-10.9767
▁আশা	-10.9768
▁சேர	-10.9769
▁থানা	-10.977
▁నవల	-10.977
▁వీటిని	-10.9771
ப்பின்	-10.9771
▁பெப்ரவரி	-10.9771
▁பரி	-10.9772
4%	-10.9773
कालीन	-10.9776
புரி	-10.9779
▁প্রায়শই	-10.9781
▁இதே	-10.9781
திரு	-10.9781
▁అర్థం	-10.9781
▁மாற்று	-10.9782
▁வழக்கு	-10.9783
▁রাখতে	-10.9784
▁দূরত্ব	-10.9785
▁லெ	-10.9785
▁దశ	-10.9787
▁বর	-10.9788
lan	-10.979
▁கடந்த	-10.9792
▁డిసెంబరు	-10.9792
யிலுள்ள	-10.9792
▁আকার	-10.9793
▁செயல்முறை	-10.9798
▁খ্রিস্টপূর্ব	-10.98
டிய	-10.98
▁उनमें	-10.9806
▁என்பன	-10.9806
▁రకాల	-10.9806
▁సందర్భంగా	-10.9811
▁পেয়েছে	-10.9811
▁நீக்க	-10.9812
लं	-10.9813
▁నెల	-10.9815
ாக்க	-10.9815
▁ஃபி	-10.9816
▁অপরাধ	-10.9819
▁एकदिवसीय	-10.9822
▁प्रकृति	-10.9823
▁அணை	-10.9823
▁चुका	-10.9824
ాడని	-10.9825
০৬	-10.9826
ज़ा	-10.9829
▁जिसने	-10.983
▁ఎత్తు	-10.983
ner	-10.983
▁संकेतस्थळ	-10.9831
▁Th	-10.9832
लु	-10.9833
▁২০২০	-10.9834
▁মুহাম্মাদ	-10.9834
▁পাওয়ার	-10.9836
▁కృషి	-10.9838
▁హైదరాబాద్	-10.9838
కోట	-10.9838
▁95	-10.9839
▁உண்மை	-10.984
▁కొడుకు	-10.984
▁প্রাণ	-10.9841
▁সম্পদ	-10.9845
▁மருந்து	-10.9848
▁বার্ষিক	-10.9849
▁अस	-10.985
▁குள	-10.9853
▁खूप	-10.9853
▁நாம்	-10.9853
▁১৯৭৩	-10.9853
▁அழுத்த	-10.9855
▁मदत	-10.9856
ారంలో	-10.9857
▁प्रौद्योगिकी	-10.9858
▁वापस	-10.986
▁আন	-10.986
▁ஏனெனில்	-10.9861
▁दूध	-10.9861
ఫ	-10.9862
▁வென்ற	-10.9863
▁American	-10.9865
▁जागतिक	-10.9866
▁ஒற்றை	-10.9867
▁அச்சு	-10.9868
▁చెంద	-10.9871
▁உச்ச	-10.9872
▁அடங்கும்	-10.9873
▁భాషా	-10.9875
▁அனுமதி	-10.9875
▁நாடுகளின்	-10.9875
০৪	-10.9876
▁তীরে	-10.9877
▁२००७	-10.9878
এফ	-10.988
▁இதழ்	-10.9882
▁यौगिक	-10.9882
▁పురాతన	-10.9884
oc	-10.9884
▁বিশ্বযুদ্ধের	-10.9886
▁उपन्यास	-10.9887
▁राज्यों	-10.9887
▁War	-10.9891
▁வழங்கும்	-10.9896
விட்டு	-10.9898
ார்கள்	-10.9898
▁কান	-10.9901
▁গেলে	-10.9904
▁திருமண	-10.9906
▁नेता	-10.9907
াব	-10.9912
▁పిన్	-10.9913
▁భక్తులు	-10.9913
च्छ	-10.9913
▁தனிப்பட்ட	-10.9915
▁पाटील	-10.9917
▁వహించాడు	-10.9917
▁টা	-10.9919
▁কার্য	-10.9919
▁పీ	-10.9926
▁नये	-10.9927
২২	-10.9928
▁வழங்கி	-10.9929
ின்றது	-10.9931
▁மார்	-10.9931
▁அரசியல்வாதிகள்	-10.9934
▁English	-10.9935
▁ప్రసిద్ధ	-10.9935
িয়	-10.9938
▁கட்டு	-10.994
▁महल	-10.994
▁నవ	-10.9944
▁শ্রীলঙ্কা	-10.9944
▁শুরুর	-10.9945
▁ईश्वर	-10.9947
▁तिच्या	-10.9948
శా	-10.9949
▁प्रसार	-10.9949
▁पुनर्	-10.995
▁హిందీ	-10.995
উল	-10.9952
▁উসমানীয়	-10.9953
▁दक्षिणी	-10.9954
णारी	-10.9955
▁মন্দিরের	-10.9957
▁প্রিমিয়ার	-10.9957
▁जाय	-10.9957
▁दान	-10.9959
ेरी	-10.9959
▁దుకాణాలు	-10.9962
▁இல	-10.9963
▁ஆகஸ்ட்	-10.9963
▁1958	-10.9965
ொ	-10.9966
▁பின்வருமாறு	-10.9967
▁राग	-10.9968
▁চাপ	-10.9971
▁1946	-10.9972
▁গণ্য	-10.9972
▁আট	-10.9977
▁நாட்கள்	-10.9977
▁জিন	-10.9977
▁কিছুটা	-10.9977
கல	-10.9977
▁అర	-10.9979
டீ	-10.998
▁গ্রন্থে	-10.9981
▁रेखा	-10.9982
ரசு	-10.9982
▁ప్రకాశం	-10.9984
জী	-10.9984
க்குத்	-10.9986
▁சாதாரண	-10.9986
▁সাগর	-10.9987
▁me	-10.9989
pi	-10.9989
ণ্ড	-10.999
▁मुख	-10.999
শান	-10.999
▁இருந்தால்	-10.999
▁आस	-10.9991
ay	-10.9992
০৯	-10.9992
▁67	-10.9993
ারের	-10.9995
நாத	-10.9998
▁டோ	-10.9998
▁விலங்கு	-11
▁हृदय	-11.0001
▁कहीं	-11.0004
▁గుర్తించ	-11.0005
▁তি	-11.0008
▁नोबेल	-11.0008
▁परन्तु	-11.001
స్తారు	-11.001
▁সংস্থার	-11.0011
▁কিমি	-11.0012
▁மக்கள்தொகை	-11.0012
▁সেনাবাহিনী	-11.0012
▁কলকাতায়	-11.0013
▁అంచనా	-11.0013
▁১৯৯৩	-11.0014
बंध	-11.0017
▁உலோக	-11.0017
▁இன்றைய	-11.0019
▁எடுத்த	-11.0023
▁অনুমান	-11.0023
▁রাস্তা	-11.0025
রত	-11.0027
তের	-11.0027
▁वेळा	-11.0027
▁అవకాశం	-11.0029
వాద	-11.0029
ஒ	-11.003
র্ন	-11.0031
▁लिपि	-11.0031
▁வேத	-11.0032
▁झाड	-11.0033
gov	-11.0035
▁எடை	-11.0036
ছা	-11.0038
▁मुद्रा	-11.0039
▁పరిధిలో	-11.004
కారం	-11.004
▁చెట్టు	-11.004
▁தூண்ட	-11.0044
বিশিষ্ট	-11.0045
▁डा	-11.0048
▁அரை	-11.0051
▁इच्छा	-11.0051
सर्वात	-11.0051
▁अक्षर	-11.0054
னெ	-11.0054
▁శాంతి	-11.0054
▁কাম	-11.0057
াতে	-11.0061
▁வழங்கப்பட்டது	-11.0061
▁வள	-11.0061
▁आत्म	-11.0062
▁తర	-11.0065
▁থানার	-11.0065
▁बँक	-11.0065
▁শতাব্দী	-11.0067
▁வான	-11.0068
▁भौतिक	-11.0069
▁சிங்	-11.0069
बद्दल	-11.0071
▁400	-11.0072
▁రైలు	-11.0072
ref	-11.0073
▁কর্তৃপক্ষ	-11.0074
▁मानते	-11.0076
▁మార్చ	-11.0076
क्त	-11.008
▁నిర్మాణం	-11.0081
সম	-11.0081
▁ஆதி	-11.0083
बद्ध	-11.0084
▁ல	-11.0085
▁కారణం	-11.0085
▁পরিষেবা	-11.0085
▁বিচার	-11.0085
బడ	-11.0085
▁প্রতিক্রিয়া	-11.0086
రూప	-11.0089
▁মুঘল	-11.009
▁होऊ	-11.0092
▁ஆகியவற்றின்	-11.0095
ম্ব	-11.0097
ன்று	-11.01
▁1954	-11.0101
பாடு	-11.0101
▁கிடைக்கும்	-11.0101
▁অক্ষাংশ	-11.0102
▁कलाकार	-11.0102
जल	-11.0103
▁குடியரசு	-11.0108
మంది	-11.011
▁নৃত্য	-11.011
▁প্রবাহ	-11.0111
▁வாய்ப்பு	-11.0115
ుగా	-11.0115
ங்களுடன்	-11.0116
▁பங்க	-11.0116
▁ఎర్ర	-11.0116
▁1920	-11.0117
▁அமைக்க	-11.0118
▁পাস	-11.0119
▁বহন	-11.0119
பால்	-11.012
▁मील	-11.0122
▁প্রতিযোগিতার	-11.0125
రాల	-11.0126
▁উয়েফা	-11.0127
▁பேரரசு	-11.0129
▁ஏற்பட	-11.0131
▁தத்துவ	-11.0131
▁व्यक्त	-11.0132
▁ধান	-11.0133
கின்	-11.0134
▁ময়মনসিংহ	-11.0134
▁तत्त्व	-11.0137
▁उसमें	-11.0138
▁நினைவு	-11.014
▁பஞ்ச	-11.0141
াদি	-11.0142
০৭	-11.0144
▁নিচের	-11.0146
▁অসংখ্য	-11.0147
లూరు	-11.015
ుకునే	-11.0151
▁రు	-11.0154
▁घडामोडी	-11.0158
ुआ	-11.0158
▁எழுதப்பட்ட	-11.0158
▁दिल	-11.0158
▁জানান	-11.0159
▁খ্রিস্টাব্দে	-11.0159
▁औसत	-11.0163
ీకరణ	-11.0166
ধর্ম	-11.0167
▁बाबा	-11.0167
▁বাদ	-11.0167
▁పాలన	-11.0167
▁ভূমিকায়	-11.0173
▁దానిని	-11.0173
మన	-11.0175
३०	-11.0176
▁গায়ক	-11.0179
▁গাছের	-11.0179
▁চু	-11.0179
▁संग्रहालय	-11.0179
বাড়ি	-11.0183
▁२८	-11.0186
▁அமில	-11.0189
▁রূপে	-11.019
▁వరకూ	-11.0191
▁खिलाड़ी	-11.0194
red	-11.0194
▁বিদ্রোহ	-11.0196
▁4.	-11.0197
ఎల్	-11.0198
ంప	-11.0198
▁बच्चों	-11.0199
▁शकते	-11.0199
▁కింద	-11.02
হো	-11.02
బడుతుంది	-11.0203
▁आर्य	-11.0203
কান	-11.0206
▁তরুণ	-11.021
▁पाए	-11.0211
▁மன்ற	-11.0216
▁शहरात	-11.0216
▁বর্ষপঞ্জির	-11.022
▁ফ্রান্সের	-11.0221
▁నాటు	-11.0222
▁पर्यावरण	-11.0224
▁చేస్తుంది	-11.0224
ங்கள	-11.0225
▁அறிக்கை	-11.0225
▁உலகில்	-11.0226
▁வெளியிடப்பட்டது	-11.0226
▁வயதில்	-11.0227
ితే	-11.0227
▁দেখানো	-11.0228
▁সিরিজের	-11.0232
▁யானை	-11.0235
वाल	-11.0235
▁సెప్టెంబరు	-11.0237
▁క్రీ	-11.0237
▁हरि	-11.0239
con	-11.0239
্যাল	-11.024
आय	-11.024
text	-11.0243
ण्यास	-11.0245
▁অফিস	-11.0246
▁इन्होंने	-11.0246
▁आपण	-11.0247
▁পানির	-11.0247
ইল	-11.0247
▁Society	-11.0252
▁कैलंडर	-11.0252
▁সফর	-11.0252
▁నిర్మించ	-11.0253
గడ	-11.0255
▁வெளியிட	-11.0256
साथ	-11.0256
ாவில்	-11.0257
▁বিধানসভা	-11.0257
স্ব	-11.0257
▁দ	-11.0258
▁১৯৭৯	-11.0258
২৪	-11.0261
▁1955	-11.0262
▁संसद	-11.0263
▁Institute	-11.0267
▁প্রদত্ত	-11.0267
নাস	-11.0268
ris	-11.0269
ative	-11.0269
▁यंत्र	-11.0269
▁२०१५	-11.0269
▁கொண்டிருந்த	-11.027
▁சார்பு	-11.0273
▁পরিবর্তিত	-11.0273
▁हैदराबाद	-11.0274
▁फ्रेंच	-11.0274
up	-11.0274
iv	-11.0277
▁লক্ষ্যে	-11.0277
▁திரை	-11.0277
▁উই	-11.0278
▁বর্ণিত	-11.0279
ानी	-11.028
▁समिति	-11.028
▁करा	-11.0283
▁फार	-11.0283
ल्ट	-11.0285
ौर	-11.0285
▁अखिल	-11.0285
▁ஷா	-11.0287
▁கழக	-11.0287
▁ఎంత	-11.0288
▁अग्नि	-11.0288
▁समाचार	-11.0289
ult	-11.0289
▁மண்டல	-11.029
త్య	-11.0293
▁कह	-11.0294
ेकर	-11.0295
▁১৯৮৯	-11.0296
ten	-11.0301
▁(2	-11.0303
▁చేసాడు	-11.0304
▁பலர்	-11.0305
▁ప్రారంభ	-11.0306
லுக்கு	-11.0307
▁அன்	-11.031
▁ডান	-11.0311
▁ছবির	-11.0312
▁১৯৮৭	-11.0314
ঙ	-11.0314
▁இருப்பது	-11.0314
ff	-11.0317
▁పూర్తిగా	-11.0317
▁भु	-11.0318
பார்	-11.0318
ायला	-11.032
▁मूल्य	-11.0323
▁வார்த்தை	-11.0324
▁வால்	-11.0326
▁খুঁজে	-11.0327
க்குழு	-11.0327
మైనది	-11.0328
▁లు	-11.0328
▁ஊடக	-11.033
▁प्रवास	-11.0332
▁গেমসে	-11.0334
ঘাট	-11.0334
▁சிறப்பாக	-11.0339
▁வலை	-11.0342
▁জয়লাভ	-11.0342
▁கம்ப	-11.0344
লেট	-11.0345
▁தமிழ்ப்	-11.0348
द्	-11.0348
చర	-11.0348
der	-11.0348
ाया	-11.0348
पेक्षा	-11.0351
মাস	-11.0352
▁బల	-11.0355
▁অবলম্বনে	-11.0355
▁రంగు	-11.0355
▁সংসদের	-11.0357
▁ব্যান্ড	-11.036
▁পেশাদার	-11.0361
▁Ar	-11.0362
▁अच्छी	-11.0362
खे	-11.0363
▁রাজবংশের	-11.0364
▁पदवी	-11.0365
కాలం	-11.0365
▁বৃহত্তর	-11.0367
▁మంచిర్యాల	-11.0368
▁இருந்தாலும்	-11.0371
▁గూడూరు	-11.0371
ற்ப	-11.0371
▁স্থাপত্য	-11.0373
▁ఆహార	-11.0373
▁इटली	-11.0373
▁82	-11.0373
▁অভি	-11.0375
▁নাগরিক	-11.0376
▁விண்வெளி	-11.0378
▁ब्र	-11.0379
▁सक्रिय	-11.0379
▁బీ	-11.038
-5	-11.0381
కల్	-11.0383
▁সত্ত্বেও	-11.0384
▁வில்லியம்	-11.0384
▁సంస్కృత	-11.0385
▁தற்போதைய	-11.0386
▁पान	-11.0387
▁நிறைவேற்ற	-11.0389
సుశీల	-11.039
▁நிகழ்வு	-11.039
भाग	-11.0391
ন্ডা	-11.0392
▁मोठी	-11.0395
▁ব্যবসায়ী	-11.0396
▁குறிப்ப	-11.0397
्‍य	-11.0398
দ্র	-11.0399
▁ప్రాచీన	-11.04
▁জায়গায়	-11.04
గారి	-11.0402
▁మద్య	-11.0403
▁कोण	-11.0404
मार	-11.0404
▁आबादी	-11.0405
▁दुसरा	-11.0405
▁Pa	-11.0405
▁இரா	-11.0407
பன்	-11.0407
▁লীগের	-11.041
▁தோன்றிய	-11.041
శు	-11.041
▁ড্র	-11.041
ర్ల	-11.0412
▁गोष्टी	-11.0414
▁সম্ভাবনা	-11.0415
▁বায়ু	-11.0417
ড়ে	-11.0418
ண்டா	-11.0418
াঙ্গ	-11.0419
স্ট্র	-11.0419
ரில்	-11.0421
▁बेल	-11.0422
▁জন্মগ্রহণকারী	-11.0425
▁যথাক্রমে	-11.0426
ोड	-11.0427
▁லே	-11.0429
▁గి	-11.043
▁अर्थात	-11.0431
▁तमिल	-11.0432
▁నరసింహ	-11.0435
कथा	-11.0435
▁విశ్వ	-11.0436
ण्याचे	-11.0437
▁चैनल	-11.0437
ل	-11.0437
▁তাদেরকে	-11.0439
▁வலி	-11.0439
▁తిరుమల	-11.0441
న్నా	-11.0442
▁கண்ண	-11.0442
▁பர	-11.0446
▁सू	-11.0446
▁খলিফা	-11.0447
▁మరియు	-11.0448
▁জাপানের	-11.0448
▁இதழ்கள்	-11.0449
▁पेश	-11.0449
▁पाने	-11.0453
▁लघु	-11.0453
▁బ్రాహ్మణ	-11.0454
▁ढ	-11.0455
বাদের	-11.0457
▁వృత్తులు	-11.0459
பீ	-11.046
▁సైనిక	-11.0461
▁शतक	-11.0461
▁स्टार	-11.0461
சில்	-11.0463
ice	-11.0465
▁সংস্কার	-11.0466
▁প্রায়ই	-11.0469
▁स्मारक	-11.0469
क्षेत्र	-11.0469
▁खर्च	-11.0469
▁పద	-11.047
100	-11.0472
▁சுத்த	-11.0474
▁गौरव	-11.0474
ஷி	-11.0474
పోషకాహార	-11.0476
▁मनो	-11.0476
▁ছ	-11.0477
হর	-11.0482
▁நேரடியாக	-11.0483
▁জটিল	-11.0484
▁जैसा	-11.0485
ংক	-11.0486
▁ताकि	-11.0488
▁भागों	-11.049
▁నటి	-11.0491
▁மாலை	-11.0492
▁బట్టి	-11.0493
▁১৯৪৮	-11.0495
▁వీటిలో	-11.0495
▁తాగునీటి	-11.0496
▁डिग्री	-11.0496
▁वैदिक	-11.0496
▁বিলুপ্ত	-11.0497
▁কাঠামো	-11.0497
▁விளைவாக	-11.0498
ிருக்கிறார்	-11.0498
▁রং	-11.0498
लिया	-11.05
▁जीत	-11.0502
▁डॉ॰	-11.0503
▁খণ্ড	-11.0504
வாத	-11.0505
జాల	-11.0506
▁১৯৩০	-11.0507
చీ	-11.0509
▁अस्तित्व	-11.0509
லெ	-11.051
తాయి	-11.0511
▁முத்து	-11.0511
▁देना	-11.0513
▁প্রকৃত	-11.0514
▁రూ	-11.0515
▁மேம்படுத்த	-11.0516
লিং	-11.0516
▁రాత్రి	-11.0516
ন্দা	-11.0517
సర	-11.0517
लन	-11.0518
ించడం	-11.0518
▁రంగారెడ్డి	-11.052
▁கடவுள்	-11.0522
ళ్లు	-11.0527
गण	-11.0528
▁నవంబరు	-11.0529
ల్స్	-11.0529
ீ	-11.0532
▁বসতি	-11.0532
▁తెలుగులో	-11.0533
▁सहा	-11.0533
▁சமுதாய	-11.0533
▁பதிலாக	-11.0538
▁மீதான	-11.054
▁शर्मा	-11.0541
▁दुर्ग	-11.0542
▁स्थिर	-11.0549
నర్	-11.0551
युक्त	-11.0552
दो	-11.0553
▁सम्बन्ध	-11.0555
▁அமைப்புகள்	-11.0556
▁செய்தது	-11.0556
▁ভাব	-11.0556
▁परिसर	-11.0557
▁கட்டுரைகள்	-11.0557
▁வேறுபட்ட	-11.0557
▁इन्	-11.0557
யெ	-11.0558
ोल	-11.0558
row	-11.0558
q	-11.0563
▁चर्चा	-11.0564
काळ	-11.0565
யினால்	-11.0565
পরি	-11.0566
स्व	-11.0566
▁প্রতিনিধি	-11.0566
▁पहुंचती	-11.0567
▁ইউরোপের	-11.0568
▁নর	-11.0568
▁समज	-11.0569
২১	-11.0569
▁ফ্রি	-11.057
ষ্ঠ	-11.0571
▁ওই	-11.0571
ফল	-11.0572
▁चलता	-11.0572
▁স্বাভাবিক	-11.0577
స్ట	-11.0578
uk	-11.0578
▁கோயில்கள்	-11.0578
▁কমে	-11.0579
▁பொழுது	-11.0579
▁দিনের	-11.058
▁जिन्होंने	-11.0582
▁बाहेर	-11.0583
▁ఉపయోగించ	-11.0584
▁it	-11.0587
ुक	-11.0591
▁இத்தாலிய	-11.0592
కృష్ణ	-11.0592
থা	-11.0592
▁দ্যা	-11.0592
▁దేశాలలో	-11.0593
▁অভ্যন্তরীণ	-11.0593
▁আকর্ষণ	-11.0596
▁1949	-11.0597
▁সহজ	-11.0597
▁ال	-11.0597
▁ஆசிய	-11.0598
తన	-11.0598
▁संरचना	-11.0599
▁प्रशासकीय	-11.0599
▁म्हटले	-11.06
▁ব্যয়	-11.06
▁मोह	-11.0601
गंज	-11.0602
▁మొక్క	-11.0602
రై	-11.0602
▁শহরটির	-11.0602
▁2021	-11.0603
▁கொடுத்த	-11.0603
▁ஏறத்தாழ	-11.0604
▁मुहम्मद	-11.0604
▁அரசாங்க	-11.0604
▁பேரூராட்சி	-11.0604
▁ক্ষেত্র	-11.0605
▁ইতিহাসের	-11.0606
ल्ल	-11.0606
▁আগ	-11.0607
▁এগুলি	-11.0607
▁Ta	-11.061
▁మూడవ	-11.061
लिन	-11.061
▁लगी	-11.0611
▁தட	-11.0611
ండ్ల	-11.0613
▁படம்	-11.0613
▁একবার	-11.0614
▁ইন্টারন্যাশনাল	-11.0615
▁প্রতিরক্ষা	-11.0615
▁மாற	-11.0618
har	-11.062
▁कोश	-11.062
বাংলাদেশ	-11.0621
পর	-11.0622
int	-11.0622
▁అనంతపురం	-11.0623
మైంది	-11.0624
ాలేమీ	-11.0625
▁सिद्धान्त	-11.0626
▁வெள்ள	-11.0628
▁సరిహద్దు	-11.0628
▁ஆவண	-11.0629
▁தொடங்கி	-11.063
▁এফ	-11.0632
▁करीब	-11.0634
ரண	-11.0634
▁जैसी	-11.0637
▁মনো	-11.0638
▁గురువు	-11.0639
▁సుందర	-11.0639
▁వీటి	-11.0641
थी	-11.0644
▁मालिका	-11.0644
▁এয়ার	-11.0644
తల	-11.0644
▁১৯৮৮	-11.0645
▁जंगल	-11.0647
▁रात	-11.0648
▁समिती	-11.0649
শক্তি	-11.065
▁उपस्थित	-11.0651
▁பாடிய	-11.0653
▁পার্শ্ব	-11.0655
▁राजवंश	-11.0657
▁ప్రదర్శన	-11.0657
▁பணியாற்றினார்	-11.0659
▁পাথর	-11.066
▁పద్మ	-11.0662
டிக்	-11.0662
▁கட்டமைப்பு	-11.0666
▁which	-11.0669
▁चर्च	-11.0669
▁Science	-11.0669
▁জাপানি	-11.067
▁చింతపల్లి	-11.0671
▁ప్రాజెక్టు	-11.0675
০৫	-11.0678
▁১৯৮২	-11.0679
▁టీ	-11.0681
'-	-11.0682
क्रम	-11.0682
▁இப்போது	-11.0683
জেন	-11.0685
▁বিলিয়ন	-11.0686
▁বাধা	-11.0687
▁तास	-11.0687
வினை	-11.0687
யினர்	-11.0688
▁भविष्य	-11.0691
ించింది	-11.0692
▁இரட்டை	-11.0692
த்தோ	-11.0693
चित्र	-11.0694
▁కర్ణాటక	-11.0696
▁పర్వత	-11.0696
▁பயணம்	-11.0696
▁प्रत्यक्ष	-11.0698
ంతా	-11.0698
முடி	-11.0698
▁तू	-11.07
▁पहिली	-11.0702
▁संस्थापक	-11.0702
▁బోరుబావులు	-11.0705
▁సంస్కృతి	-11.0708
▁ఇతని	-11.0708
পন্যাসিক	-11.071
▁உயர	-11.071
▁इंडियन	-11.0711
▁আর্থিক	-11.0711
▁his	-11.0711
বের	-11.0712
దో	-11.0713
▁69	-11.0713
గ్రామంలో	-11.0714
▁বাংলায়	-11.0715
ोन	-11.0716
▁तारा	-11.0716
ూరులో	-11.0716
▁मांग	-11.0717
ाकडे	-11.0719
▁কার্যকর	-11.0719
▁பாதை	-11.0719
लिंग	-11.0722
▁நிகழ்ந்த	-11.0725
▁चौक	-11.0725
▁శాస్త్రవేత్త	-11.0726
▁చేతిపంపులు	-11.0728
ந்திர	-11.0729
▁ন্যায়	-11.0729
▁प्रकल्प	-11.073
▁మరింత	-11.073
▁வடிவம்	-11.0733
▁उपकरण	-11.0733
▁నేల	-11.0733
▁ঠাকুর	-11.0735
▁বজায়	-11.0735
த்தே	-11.0736
ov	-11.0737
பர	-11.0738
▁ओळख	-11.074
▁కర	-11.074
वास	-11.0744
▁நபர்கள்	-11.0744
▁முறையாக	-11.0744
▁লিখিত	-11.0744
লাম	-11.0745
▁జాతి	-11.0746
▁పట్టణం	-11.0746
▁ஊராட்சி	-11.0746
ஷா	-11.0747
▁పూ	-11.0747
২৮	-11.0747
▁Car	-11.0747
▁आरोप	-11.0749
▁99	-11.0751
▁পৃথিবী	-11.0753
অ্যা	-11.0754
▁বিপরীতে	-11.0754
রাই	-11.0755
▁సేవ	-11.0756
ेज	-11.0757
▁আওয়ামী	-11.0757
▁आरोग्य	-11.0757
▁निम्नलिखित	-11.0757
▁নবাব	-11.0757
▁भावना	-11.0758
పే	-11.0758
ుతున్న	-11.0759
▁లక్ష్మీ	-11.0759
▁सेंट	-11.076
▁৮০	-11.0761
du	-11.0762
▁शिक्षक	-11.0762
▁आधी	-11.0763
▁সঙ্গীতশিল্পী	-11.0763
▁அதி	-11.0763
▁கவிஞர்	-11.0765
ारी	-11.0765
▁हाल	-11.0766
য়েন	-11.0766
াংশ	-11.0766
ేషన్	-11.0768
▁ओळखले	-11.0775
ుకున్నాడు	-11.0777
▁నామ	-11.0777
০৩	-11.0779
ంట	-11.0779
০৮	-11.0779
▁சந்திர	-11.078
▁বোলিং	-11.0781
▁মাঠ	-11.0782
▁সেগুলো	-11.0782
▁চ্যাম্পিয়ন	-11.0782
Re	-11.0784
ling	-11.0784
শো	-11.0784
ik	-11.0785
▁গৃহীত	-11.0785
▁వేరు	-11.0785
रों	-11.0786
బె	-11.0788
▁ఇన్	-11.0789
ज़ी	-11.0792
▁পদ্ধতিতে	-11.0794
▁वार	-11.0796
▁கணித	-11.0799
▁సోమ	-11.0799
▁పరిశోధన	-11.0801
▁ক্যালিফোর্নিয়া	-11.0803
মুখী	-11.0804
ीला	-11.0805
▁वनस्पती	-11.0805
बू	-11.0806
▁அடைந்த	-11.0806
port	-11.0807
▁২টি	-11.0807
ाप	-11.0807
▁मिट्टी	-11.0812
ப்படுவது	-11.0812
▁আদেশ	-11.0815
నారాయణ	-11.0816
▁বাবার	-11.0817
श्	-11.0819
ंगा	-11.0819
▁சென்	-11.082
▁आती	-11.082
ৎস	-11.0821
▁பயன்படும்	-11.0822
▁క్రింద	-11.0822
▁அடிமை	-11.0822
ভূমি	-11.0826
రూ	-11.0827
▁இவரை	-11.0827
▁பழ	-11.0828
▁चले	-11.0829
▁ভোট	-11.0829
▁तरफ	-11.0829
▁தமிழ்நாட்டில்	-11.0829
▁ఆత్మ	-11.083
▁US	-11.083
▁సంప్రదాయ	-11.0831
▁முடியாது	-11.0831
▁বৈ	-11.0832
▁আগত	-11.0833
▁সহকারী	-11.0833
▁রাষ্ট্রীয়	-11.0834
ிக்க	-11.0835
▁बीज	-11.0836
▁आयु	-11.0836
▁நிலையை	-11.0838
▁একর	-11.0839
ున్నారు	-11.0841
शु	-11.0841
▁இளம்	-11.0843
▁என்பதால்	-11.0846
▁గారు	-11.0849
मेन	-11.0849
▁कुटुंब	-11.085
▁কুমিল্লা	-11.0851
ंप	-11.0853
▁राव	-11.0854
▁நடித்தார்	-11.0857
▁যুব	-11.0862
ठा	-11.0862
▁விரும்ப	-11.0863
▁খোলা	-11.0863
▁उपग्रह	-11.0863
▁மாநிலத்தின்	-11.0866
▁Se	-11.0866
▁वास्तव	-11.0866
▁బౌద్ధ	-11.0868
▁अभियान	-11.0868
ক্ষণ	-11.0868
কেন্দ্র	-11.0869
క్కు	-11.087
▁করলেও	-11.087
யூர்	-11.0872
উদ্দিন	-11.0872
▁मिळ	-11.0873
▁इंग्लैंड	-11.0873
▁ప్రక్రియ	-11.0874
▁இசுலாமிய	-11.0874
▁মাল	-11.0875
▁விட்ட	-11.0876
करी	-11.0876
▁?	-11.0876
▁नस	-11.0878
▁చిన	-11.0879
▁স্তর	-11.0879
▁अफ्रीका	-11.0879
স্প	-11.088
▁అయింది	-11.088
io	-11.0881
▁वाहन	-11.0882
கூ	-11.0883
▁সীমান্ত	-11.0884
▁সাহিত্যের	-11.0884
▁বেঙ্গল	-11.0885
▁वही	-11.0889
▁মূল্য	-11.089
▁निवास	-11.089
▁२००४	-11.089
▁परमाणु	-11.089
▁பின்பற்ற	-11.089
▁খানের	-11.089
▁గురు	-11.0892
▁স্টার	-11.0894
▁भौगोलिक	-11.0896
▁অভিহিত	-11.0896
▁वस्तू	-11.0896
▁अन्न	-11.0898
▁సహ	-11.09
ens	-11.0903
மைய	-11.0904
▁धातु	-11.0905
▁शिष्य	-11.0905
ীদের	-11.0906
▁ఇం	-11.0907
▁விளையாட	-11.0909
கிரி	-11.0912
▁हिमालय	-11.0913
▁కొందరు	-11.0913
▁குறிப்பு	-11.0913
▁সমৃদ্ধ	-11.0914
▁78	-11.0916
▁మంత్రి	-11.0917
িয়াস	-11.092
▁ব্যাপকভাবে	-11.0922
యర్	-11.0924
▁मंत्रालय	-11.0924
▁జన్మించాడు	-11.0924
▁நாளில்	-11.0927
▁शेती	-11.0928
▁मिले	-11.0931
▁মাতা	-11.0931
▁নবী	-11.0933
▁संपर्क	-11.0935
▁పూజ	-11.0936
▁உறை	-11.0937
▁స్థానం	-11.0938
▁சிவன்	-11.0939
▁काय	-11.0939
▁about	-11.0941
▁సంవత్సరాలు	-11.0941
▁নিউজিল্যান্ড	-11.0941
▁কিনা	-11.0946
▁मुल	-11.0947
▁কীভাবে	-11.0948
ந்தை	-11.0949
▁சுற்று	-11.095
▁சிலர்	-11.0951
▁প্রতিষ্ঠার	-11.0951
ஃ	-11.0952
▁प्रकट	-11.0953
▁স্যা	-11.0953
▁హైదరాబాదులోను	-11.0957
▁क्र	-11.0958
ोस	-11.0959
लेला	-11.096
मराठी	-11.0961
▁भेट	-11.0961
ाइन	-11.0964
▁குறியீடு	-11.0964
▁খু	-11.0967
▁অনূর্ধ্ব	-11.0969
▁প্রত্নতাত্ত্বিক	-11.0969
▁అగ్ని	-11.0969
▁బ్రిటిష్	-11.0971
▁#	-11.0974
▁হয়েছেন	-11.0974
▁अच्छा	-11.0975
▁स्पेन	-11.0975
▁கோட்ட	-11.0977
মেন	-11.0979
▁పొడవు	-11.0982
ింగ్	-11.0983
▁எடுத்துக்	-11.0983
▁ఆనంద	-11.0986
▁অলিম্পিকে	-11.0986
▁२०००	-11.0989
चि	-11.099
▁மட	-11.0992
▁यज्ञ	-11.0993
▁தரும்	-11.0994
భవ	-11.0996
▁దేవి	-11.1
र्ज	-11.1003
ுக்காக	-11.1003
▁यादव	-11.1003
▁আবদ্ধ	-11.1004
▁கொலை	-11.1005
▁గ్రామంలోని	-11.1006
स्य	-11.1006
▁শক্তির	-11.1007
क़	-11.1011
ையில்	-11.1012
ीची	-11.1012
▁பெறும்	-11.1013
▁সেতু	-11.1014
ண்ண	-11.1015
▁দলটি	-11.1015
చేయ	-11.1018
▁বেসরকারি	-11.102
▁धो	-11.1021
▁பயன	-11.1025
▁ఒంగోలు	-11.1025
తె	-11.1026
০২	-11.1026
१५	-11.1026
▁অর্ধ	-11.1028
▁नागपूर	-11.103
▁రామకృష్ణ	-11.1032
▁১৯৭৪	-11.1032
▁వర	-11.1033
▁இவற்றில்	-11.1033
▁विश्लेषण	-11.1037
▁गण	-11.1037
▁కాకినాడ	-11.1038
▁छत्रपती	-11.1042
▁कळ	-11.1043
ea	-11.1045
▁విస్తీర్ణం	-11.1047
क्क	-11.1047
▁சார்	-11.1047
▁అతిపెద్ద	-11.1048
▁চালিয়ে	-11.1048
▁पत्रिका	-11.1049
ীন	-11.105
ుడిని	-11.1054
ron	-11.1054
▁செயல்படுத்த	-11.1055
▁°	-11.1055
▁ஜெய	-11.1056
▁সাউথ	-11.1059
▁ஏற்பட்டது	-11.1061
▁கண	-11.1063
▁आधिकारिक	-11.1064
ina	-11.1064
▁মিলে	-11.1065
▁త్రి	-11.107
▁তাঁকে	-11.1071
▁ஒன்றிய	-11.1074
;"	-11.1075
▁চট্টোপাধ্যায়	-11.1076
கில்	-11.1076
-6	-11.1077
▁76	-11.1077
ஃபி	-11.1078
▁किनारे	-11.1082
▁১৯৮৫	-11.1083
▁দশক	-11.1083
▁మంత్ర	-11.1084
▁జన్మ	-11.1084
▁1953	-11.1086
▁सामग्री	-11.1087
▁२९	-11.1088
▁ஓவிய	-11.1089
▁செலவு	-11.1089
கின்றது	-11.1089
▁நகராட்சி	-11.109
▁গ্রহ	-11.1091
▁লন্ডন	-11.1091
▁இராம	-11.1093
▁वहां	-11.1093
▁উঁচু	-11.1093
▁साधन	-11.1094
ధ్య	-11.1094
▁জাদুঘর	-11.1095
▁ঘর	-11.1096
वीर	-11.1097
▁चुके	-11.1097
▁२०१३	-11.1103
২৯	-11.1103
▁ग्रहण	-11.1104
▁वार्षिक	-11.1105
▁सरदार	-11.111
▁येथून	-11.1111
▁পর্যটন	-11.1111
▁కన్న	-11.1111
కలు	-11.1111
▁পল	-11.1113
▁अतः	-11.1114
▁टेस्ट	-11.1114
దేవ	-11.1115
▁মাইকেল	-11.1117
▁বীজ	-11.1117
pur	-11.1117
▁నీటిని	-11.1119
▁జరిగే	-11.112
▁বেগম	-11.1125
▁তুর্কি	-11.1128
▁৭০	-11.1129
▁আসলে	-11.1133
▁अंतर्राष्ट्रीय	-11.1133
বিজ্ঞান	-11.1136
▁চাষ	-11.1139
ster	-11.1139
background	-11.1139
ex	-11.114
ீட்ட	-11.1142
▁उठ	-11.1145
▁இரண்ட	-11.1145
டம்	-11.1145
bi	-11.1146
▁ইতালীয়	-11.1148
▁দ্রাঘিমাংশ	-11.1151
▁సర్	-11.1151
सारखे	-11.1151
▁সমালোচনা	-11.1151
ेर	-11.1151
▁अम्ल	-11.1152
▁উদাহরণস্বরূপ	-11.1156
ধি	-11.1156
▁உலகம்	-11.1157
▁குதிரை	-11.1159
▁আসার	-11.116
▁கல்லூரியில்	-11.1161
▁১৯৬৯	-11.1161
▁கடை	-11.1162
▁প্রজাতন্ত্র	-11.1162
▁शिखर	-11.1162
▁প্রতিষ্ঠানের	-11.1165
৯৯	-11.1165
மாக்க	-11.1166
▁இவருடைய	-11.1168
▁जर	-11.1173
க்கல்	-11.1174
▁वेस्ट	-11.1174
ఫా	-11.1174
▁தொடங்கினார்	-11.1174
▁ఉపయోగిస్తారు	-11.1174
▁অংশের	-11.1175
ిస్తున్న	-11.1175
ன்ன	-11.1175
▁পছন্দ	-11.1176
रण	-11.118
▁जेव्हा	-11.118
▁பிரிக்க	-11.1181
▁దేశాల	-11.1183
வள	-11.1183
▁विदेशी	-11.1185
▁आंध्र	-11.1185
१२	-11.1187
▁भक्त	-11.1189
▁सोन	-11.119
▁ব্ল্যাক	-11.119
▁शासकीय	-11.119
▁सांगितले	-11.1191
▁புல	-11.1191
టిక్	-11.1192
▁అతడి	-11.1192
▁৪৮	-11.1194
▁சேர்	-11.1195
बो	-11.1195
ड़े	-11.1196
▁97	-11.1196
▁రాజమండ్రి	-11.1197
▁প্রেম	-11.1197
▁சுழற்சி	-11.1197
ন্য	-11.1197
▁இயல்பு	-11.1198
మాన్	-11.1198
▁আচরণ	-11.12
▁1951	-11.1202
▁एच	-11.1202
▁খুলনা	-11.1205
▁నిర్మించారు	-11.1207
▁கொழும்பு	-11.1207
▁தொடர்புடைய	-11.1207
▁పైన	-11.1211
▁பர்	-11.1213
ेला	-11.1214
▁অফিসার	-11.1215
▁সাফল্য	-11.1217
▁அளித்த	-11.1217
्ह	-11.1219
mer	-11.1221
▁আবুল	-11.1221
▁ज़	-11.1222
▁மலேசிய	-11.1223
भूत	-11.1224
▁मंत्र	-11.1224
स्टर	-11.1229
ue	-11.123
▁ব্যবস্থার	-11.1231
▁நியூயார்க்	-11.1232
▁কোম্পানির	-11.1234
▁পারমাণবিক	-11.1234
▁பேச்சு	-11.1236
all	-11.1238
▁লিমিটেড	-11.1239
▁करण्याची	-11.1239
▁ऊ	-11.1239
▁மாற்றி	-11.1241
িতা	-11.1242
▁இந்தியப்	-11.1242
▁73	-11.1242
▁উচিত	-11.1243
▁வடிவமைப்பு	-11.1244
be	-11.1248
ஆங்கிலம்	-11.1248
्याच्या	-11.1252
▁পাঞ্জাব	-11.1252
धी	-11.1253
লাই	-11.1255
▁1941	-11.1256
▁லீ	-11.1257
▁फे	-11.1258
ho	-11.1259
ம்பி	-11.1259
▁84	-11.1261
▁నాయకుడు	-11.1261
▁খেলে	-11.1263
▁হলুদ	-11.1263
▁చుట్టూ	-11.1267
▁74	-11.127
க்குச்	-11.1271
▁छूटत	-11.1273
ফোর্ড	-11.1273
▁வரையறை	-11.1275
రంగ	-11.1275
সাই	-11.1276
▁1942	-11.1276
6%	-11.1277
▁కుమార్	-11.1281
▁கேள்வி	-11.1283
▁ব্লক	-11.1284
২৬	-11.1285
▁तहत	-11.1287
▁அமைந்தது	-11.1288
html	-11.129
▁सड़क	-11.1292
▁mo	-11.1293
▁రాసిన	-11.1293
▁பத்திரிகை	-11.1293
తులు	-11.1294
▁প্রখ্যাত	-11.1295
▁জার্মানির	-11.1298
▁సామ్రాజ్యం	-11.13
▁১ম	-11.1303
▁ওয়ে	-11.1304
line	-11.1304
▁சாதி	-11.1306
▁পাবলিক	-11.1306
▁জাপান	-11.1309
▁ప్రభావం	-11.1309
భా	-11.1309
దం	-11.131
ওয়ে	-11.1311
గం	-11.1312
▁విషయం	-11.1312
▁இயந்திர	-11.1313
▁ప్రస్తుత	-11.1314
ুক	-11.1315
▁संगीतकार	-11.1315
नर	-11.1316
वां	-11.1318
▁பின்பு	-11.1318
▁दुसरे	-11.1318
యూ	-11.1319
ுப்	-11.1324
▁तीर्थ	-11.1326
▁తీర	-11.1326
லாக	-11.1328
▁1944	-11.1329
▁১৯৬২	-11.133
▁পেতে	-11.1332
▁மை	-11.1335
▁விருப்ப	-11.1335
▁মুসলমান	-11.1337
९	-11.134
৬০	-11.1342
टल	-11.1343
▁फुले	-11.1344
▁la	-11.1345
৮০	-11.1346
▁यूरोपीय	-11.1347
▁সহযোগী	-11.1348
ोप	-11.1348
▁२००१	-11.1349
और	-11.1357
ుడిగా	-11.1358
ఫి	-11.1359
▁पर्यटक	-11.1362
தில்லை	-11.1365
han	-11.1365
▁చేస్తూ	-11.1366
्म	-11.1366
ாம்	-11.1366
▁மாணவர்	-11.1368
▁ఫి	-11.137
▁அளிக்க	-11.137
▁মুদ্রা	-11.1372
▁পদার্থবিজ্ঞানী	-11.1372
▁अर्थात्	-11.1375
▁গুপ্ত	-11.138
बार	-11.138
▁रुपये	-11.1383
த்தது	-11.1384
২৭	-11.1385
▁ফু	-11.1387
ுவதில்	-11.1388
▁हात	-11.1388
्त	-11.1388
▁ஆகியன	-11.139
▁புத்த	-11.1392
▁రై	-11.1393
▁స్టేషను	-11.1394
చా	-11.1395
৭০	-11.1395
१७	-11.1396
महा	-11.1398
▁స్థాయి	-11.1399
▁আনুমানিক	-11.14
▁సాంకేతిక	-11.14
▁थ	-11.14
▁உட்	-11.1402
శి	-11.1403
▁৩৫	-11.1403
లేక	-11.1403
्रा	-11.1403
▁শারীরিক	-11.1405
▁பொருத்த	-11.1408
▁হাট	-11.1408
ভুক্ত	-11.141
▁सरस्वती	-11.1411
▁அனைத்தும்	-11.1413
▁হাসপাতাল	-11.1413
▁যেসব	-11.1415
▁বাস্তব	-11.1416
▁तळ	-11.1416
▁திருவ	-11.1418
▁நகைச்சுவை	-11.1418
▁রংপুর	-11.142
▁To	-11.142
▁मूर्ति	-11.142
▁சீனா	-11.1421
▁ফ্রান্স	-11.1421
▁करोड़	-11.1421
▁தெலுங்கு	-11.1422
▁मांड	-11.1423
▁బొబ్బిలి	-11.1424
▁नाशिक	-11.1425
ணா	-11.1426
▁சேர்க்க	-11.1428
िस्ट	-11.1429
▁देशाच्या	-11.1429
▁கிடைத்த	-11.1429
▁పసుపు	-11.143
▁குறைவாக	-11.143
▁शांति	-11.1431
▁शक	-11.1431
▁केंद्रीय	-11.1432
కవి	-11.1433
▁போன்றவற்றை	-11.1433
திய	-11.1434
▁প্রেরণ	-11.1435
▁लौट	-11.1435
▁संगणक	-11.1436
ையா	-11.1438
▁विश्वचषक	-11.1442
▁নজরুল	-11.1442
▁இயக்கம்	-11.1443
▁பிரபலமான	-11.1444
▁সম্প্রচার	-11.1446
▁এগিয়ে	-11.1447
▁అనంతరం	-11.1448
▁নিদর্শন	-11.1448
▁सां	-11.1449
▁সম্বন্ধে	-11.1449
▁சொற்	-11.1451
భాష	-11.1452
▁வண்ண	-11.1455
▁பகுதியை	-11.1456
ण्याच्या	-11.1461
▁মাছের	-11.1462
राय	-11.1463
▁প্রো	-11.1465
▁సర్వీసు	-11.1465
▁Ha	-11.1466
....	-11.1466
▁மக்	-11.1466
ेड	-11.1468
▁আসাম	-11.1469
▁স্পেনীয়	-11.1469
ub	-11.147
▁फॉर्म्युला	-11.1471
▁প্রয়োজনীয়	-11.1471
▁বিবরণ	-11.1472
▁మారింది	-11.1473
▁মুখে	-11.1474
ాలుగా	-11.1475
▁ঢাকায়	-11.1476
जर	-11.1476
లపై	-11.1482
▁प्रस्ताव	-11.1483
्ड	-11.1485
ாண்டு	-11.1485
▁महत्त्वाचे	-11.1486
▁খ্রিস্টান	-11.1489
வடிவ	-11.149
▁நை	-11.1492
▁உருவாக்கிய	-11.1492
▁বিপরীত	-11.1492
▁ডাই	-11.1493
யாகக்	-11.1493
▁उर्दू	-11.1497
శాల	-11.1497
▁பிரதி	-11.1497
▁५०	-11.1499
▁చాల	-11.1499
▁বন্দ্যোপাধ্যায়	-11.1501
iz	-11.1501
▁அவர்களுக்கு	-11.1505
▁குற்ற	-11.1505
గ్రా	-11.1508
▁பறவை	-11.1508
द्द	-11.1509
▁भारी	-11.1509
పాటు	-11.1511
▁आशा	-11.1512
▁तर्क	-11.1517
▁இல்ல	-11.1518
▁తీ	-11.152
▁கோட்பாடு	-11.152
▁பொருட்களை	-11.152
्ज	-11.1521
▁तल	-11.1522
యన్	-11.1522
ट्स	-11.1523
పెట్ట	-11.1525
জাত	-11.1526
▁जम	-11.1529
তী	-11.153
▁সংক্ষিপ্ত	-11.1531
▁গোষ্ঠী	-11.1531
▁संगम	-11.1531
▁முஸ்லிம்	-11.1531
▁२०१७	-11.1533
శాస్త్ర	-11.1537
▁Sh	-11.1543
▁தொடர	-11.1543
స్టు	-11.1543
▁संसार	-11.1543
ies	-11.1546
▁कोल्हापूर	-11.155
ियम	-11.1551
ందుకు	-11.1556
▁কাব্য	-11.1556
▁துவக்க	-11.1557
▁இவ்	-11.1558
క్త	-11.156
▁ప్రాణ	-11.1562
▁घटनाएँ	-11.1562
▁১৯৮১	-11.1562
▁சாதனை	-11.1563
▁அதிகாரி	-11.1564
▁अर्	-11.1565
▁भाऊ	-11.1566
भारत	-11.1566
விலும்	-11.1567
▁ఉంటారు	-11.1568
▁সংজ্ঞা	-11.1569
▁ధన	-11.157
▁কয়েকজন	-11.157
▁வில்	-11.1573
▁மக்களுக்கு	-11.1574
▁उद्	-11.1577
▁ডেভিড	-11.1578
▁सही	-11.1579
মী	-11.158
াইন	-11.1581
▁हों	-11.1581
▁माध्यमिक	-11.1582
▁வெளியே	-11.1583
▁গুলি	-11.1583
▁युवा	-11.1585
▁பூங்கா	-11.1585
▁शकतो	-11.1586
tro	-11.1587
</	-11.1588
▁বোলার	-11.1588
▁বিশ্বে	-11.1589
ব্যা	-11.159
▁பாதிக்கப்பட்ட	-11.159
▁1939	-11.1591
▁రచించిన	-11.1593
▁উপাধি	-11.1595
ాపురంలో	-11.1596
▁वीं	-11.1596
▁నిర్వహణ	-11.1597
▁तिला	-11.1599
கெ	-11.1601
▁পাঠানো	-11.1601
▁దర్శకత్వంలో	-11.1601
▁भूषण	-11.1602
▁স্যার	-11.1602
ுகிறார்கள்	-11.1602
মত	-11.1602
▁वजह	-11.1602
▁గంగ	-11.1603
▁ইউনিয়নে	-11.1604
রাও	-11.1606
▁హెక్టారులు	-11.1608
▁बच्चे	-11.1608
▁होगी	-11.1609
வதற்கு	-11.161
த்தக்க	-11.1611
▁మాట్లాడ	-11.1611
▁దాడి	-11.1612
য়েড	-11.1613
▁आवाज	-11.1614
▁হরি	-11.1614
▁प्राय	-11.1616
▁রক	-11.1618
▁இந்தி	-11.1619
னல்	-11.1619
▁এভাবে	-11.1619
▁వార	-11.1621
▁लिखी	-11.1622
▁ক্রিয়া	-11.1623
এইচ	-11.1624
▁சுந்தர	-11.1625
ler	-11.1626
▁প্রজনন	-11.1626
▁வருட	-11.1627
▁মার্	-11.1627
ley	-11.1628
▁பின்வரும்	-11.1628
▁రోజుల	-11.1629
▁সদস্যদের	-11.163
मती	-11.163
▁মাংস	-11.1631
▁உள்ளூர்	-11.1632
▁करणारे	-11.1634
नेट	-11.1636
উস	-11.1638
▁বিশ্বব্যাপী	-11.1639
▁आत्मा	-11.1639
▁কাজী	-11.164
च्च	-11.1641
তেও	-11.1641
▁హరి	-11.1644
▁খরচ	-11.1644
రిక	-11.1645
▁রকম	-11.1645
▁நீள	-11.1645
క్‌	-11.1647
▁खालील	-11.1647
▁98	-11.1649
▁శాస్త్రి	-11.165
ich	-11.165
▁उदय	-11.1651
சல்	-11.1653
பிர	-11.1654
কুল	-11.1656
তলা	-11.1656
▁অর্ডার	-11.1657
▁प्रतिनिधित्व	-11.1657
ట్స్	-11.1658
▁लक्ष्मी	-11.166
▁முடியாத	-11.1661
▁83	-11.1662
में	-11.1663
களுக்குப்	-11.1665
▁एफ	-11.1666
▁বলেছিলেন	-11.1667
▁he	-11.1667
▁ষষ্ঠ	-11.1669
▁మాడుగుల	-11.1669
▁द्वार	-11.1669
▁पत्थर	-11.1669
▁रख	-11.167
▁स्थानिक	-11.167
ations	-11.1673
▁बनाई	-11.1673
▁శాస్త్ర	-11.1675
▁विद्यार्थी	-11.1681
▁தல	-11.1681
▁செயற்கை	-11.1681
▁pro	-11.1683
▁मंगल	-11.1684
தொ	-11.1684
వులు	-11.1685
▁एकत्र	-11.1685
াকার	-11.1686
▁இசு	-11.1686
ணர்	-11.1688
▁பெண்ண	-11.1688
விலிருந்து	-11.1688
▁71	-11.1689
▁जवळ	-11.1689
ుకు	-11.169
▁எடுக்க	-11.169
▁டொ	-11.1691
▁কাঠ	-11.1692
வையாக	-11.1692
▁రక్షణ	-11.1695
▁রাষ্ট্রের	-11.1695
ிற்காக	-11.1695
▁पुढील	-11.1696
▁থাকলেও	-11.1697
▁কমিশন	-11.1698
▁Ho	-11.1698
ாட்சி	-11.1701
ip	-11.1701
யல்	-11.1701
▁అమెరికన్	-11.1703
স্কি	-11.1705
▁रशिया	-11.1705
▁দিকের	-11.1706
▁ईसा	-11.1706
ইয়া	-11.1706
▁துணி	-11.1707
’’	-11.171
ాంగ	-11.1711
▁टीका	-11.1711
▁১৯৭৬	-11.1711
▁सारे	-11.1712
डर	-11.1714
తను	-11.1715
▁ঘটনার	-11.1717
▁আলম	-11.1717
▁बेगूसराय	-11.1717
▁সেটি	-11.172
र्व	-11.1723
▁Ex	-11.1724
லன்	-11.1724
▁கர	-11.1724
▁தொலை	-11.1729
தீ	-11.173
▁ఆమెను	-11.173
▁డిగ్రీలు	-11.1731
▁நல	-11.1732
ుకోవడం	-11.1733
রিন	-11.1734
▁Har	-11.1734
ki	-11.1735
পের	-11.1735
▁दिग्दर्शक	-11.1735
பிறப்பு	-11.1736
▁আর্	-11.1736
ফে	-11.1738
av	-11.1739
▁युरोप	-11.1743
▁लगाया	-11.1746
▁தொழிலாளர்	-11.1747
లైన	-11.1748
▁தயாரிக்க	-11.1748
கான்	-11.175
▁భారతదేశ	-11.175
▁சுய	-11.175
▁পাহাড়	-11.1751
েন্দ্র	-11.1752
ப்பூ	-11.1752
▁లలో	-11.1752
▁সমাজের	-11.1753
▁স্বতন্ত্র	-11.1754
▁স্টেট	-11.1754
▁अर	-11.1756
▁திராவிட	-11.1758
க்களின்	-11.1759
▁मां	-11.1759
▁জলবায়ু	-11.176
▁মেট্রো	-11.176
▁स्थानों	-11.176
▁কার্ড	-11.1762
ப்பில்	-11.1769
▁அலகு	-11.1769
▁இராகம்	-11.1772
▁గీత	-11.1773
▁అరకులోయలోను	-11.1773
<	-11.1773
▁রুট	-11.1773
தலை	-11.1777
▁उत्कृष्ट	-11.1778
▁దానికి	-11.1779
▁இணைப்பு	-11.178
मह	-11.178
he	-11.178
யோடு	-11.178
▁கேரள	-11.1781
▁প্রশ্ন	-11.1782
ండే	-11.1783
▁উপনিবেশ	-11.1783
▁నగరంలో	-11.1784
▁వెనుక	-11.1784
▁ইচ্ছা	-11.1784
▁செயல்பட	-11.1785
▁तत्व	-11.1786
▁১৯৭৮	-11.1787
▁वास्तविक	-11.1787
▁সামান্য	-11.179
▁ম্যানচেস্টার	-11.179
▁प्राण	-11.1794
▁मौजूद	-11.1795
▁स्मृति	-11.1796
▁लाइन	-11.1796
▁अनुमान	-11.1797
▁சிங்கப்பூர்	-11.1797
▁అయ్య	-11.1798
డమే	-11.1799
▁అన్నాడు	-11.1803
▁जाएगा	-11.1804
▁கட்சியின்	-11.1804
రోజు	-11.1804
▁காணலாம்	-11.1805
ేపల్లి	-11.1807
▁টো	-11.1809
▁அடைய	-11.181
▁అవసరం	-11.1811
▁মাঠে	-11.1811
▁বিশেষত	-11.1812
▁திருச்சபை	-11.1812
পদ	-11.1813
రక	-11.1815
▁பிரா	-11.1816
ௌ	-11.1817
েরও	-11.1818
▁ஈழ	-11.1818
▁लेते	-11.1821
▁புலி	-11.1821
▁ధ	-11.1822
▁गैस	-11.1822
▁கோடி	-11.1823
▁कं	-11.1824
▁প্রাপক	-11.1827
▁அற	-11.1828
ঘর	-11.1829
▁ইউরোপ	-11.183
▁बर्	-11.1833
्ग	-11.1833
▁மாவட்டத்திலுள்ள	-11.1833
▁கொண்டுள்ளன	-11.1834
▁সংস্কৃতির	-11.1834
▁তামিল	-11.1835
▁৫২	-11.1835
▁श्रीलंका	-11.1835
সী	-11.1837
▁प्राणी	-11.184
▁South	-11.184
పేటలో	-11.1841
ीस	-11.1843
▁చిత్రంలో	-11.1845
▁दोस्त	-11.1847
▁మండలంతో	-11.1847
▁திரைப்படத்தில்	-11.1847
▁அவ	-11.1848
▁व्यास	-11.1848
▁அங்க	-11.1849
▁नियुक्त	-11.1849
▁కుమార్తె	-11.1851
धि	-11.1852
▁వహించిన	-11.1853
▁संस्कार	-11.1856
▁মহাসড়ক	-11.1856
ium	-11.1857
▁यद्यपि	-11.1858
▁सुरक्षित	-11.1858
▁প্রি	-11.1859
ong	-11.186
రవ	-11.1861
▁செய்	-11.1862
েশ	-11.1867
▁तालुका	-11.1867
▁நாட்	-11.1868
▁সফরে	-11.1869
দেব	-11.1874
▁বিন্দু	-11.1876
-'	-11.1877
ப்படலாம்	-11.1878
మ్‌	-11.1878
सेन	-11.1878
▁কর্মজীবন	-11.188
▁কেন	-11.1881
▁চ্যাম্পিয়নশিপ	-11.1883
▁চিন্তা	-11.1885
▁নেপাল	-11.1886
▁द्वि	-11.1886
▁भाषे	-11.1888
tu	-11.1889
▁लग्न	-11.189
▁गंभीर	-11.1895
बु	-11.1895
কাস	-11.1897
▁संबंधी	-11.1897
▁সেমি	-11.1897
▁তৈরির	-11.1898
▁निर्माता	-11.1898
உருவாக்கப்பட்டது	-11.19
▁তীব্র	-11.19
▁சமயம்	-11.19
▁आकाश	-11.1901
▁हॉ	-11.1901
▁मानसिक	-11.1902
▁উঠেছে	-11.1902
▁సహజ	-11.1904
వ్య	-11.1905
கார்	-11.1906
তত্ত্ব	-11.1906
▁শত্রু	-11.1907
▁180	-11.1907
▁உறவு	-11.1908
స్తే	-11.1911
▁मानक	-11.1911
▁வல்ல	-11.1912
▁সমাধান	-11.1912
sc	-11.1913
लू	-11.1913
▁म्हण	-11.1919
நீர்	-11.192
సూ	-11.192
▁কী	-11.1922
స్తా	-11.1923
▁వాడు	-11.1927
▁पू	-11.1928
▁फुल	-11.1928
▁আপ	-11.193
▁१००	-11.193
▁মাধ্যম	-11.193
▁புரோ	-11.193
▁মিলিত	-11.1931
ावरून	-11.1931
శాస్త్రి	-11.1931
▁পরিমাপ	-11.1931
ஹ்	-11.1934
देवी	-11.1934
াবাদ	-11.1935
ep	-11.1936
क्या	-11.1936
▁அடிப்படையாகக்	-11.1937
An	-11.1939
▁ஆட	-11.1939
▁நடைபெறும்	-11.1941
▁ரூ	-11.1942
▁आहार	-11.1942
▁மக	-11.1943
▁சூழல்	-11.1944
ాది	-11.1946
▁গিয়েছিল	-11.1949
▁প্রচলন	-11.195
দিয়া	-11.1951
ுவதால்	-11.1952
▁site	-11.1953
स्ता	-11.1953
▁क्रांति	-11.1954
▁শ্রেণীর	-11.1955
▁అనంత	-11.1955
▁शुक्ल	-11.1957
▁पोप	-11.1958
▁2020	-11.1959
▁పొందింది	-11.1959
▁निजी	-11.1959
வாதி	-11.196
న్నది	-11.196
▁नियमित	-11.1961
ட்சி	-11.1961
লাস	-11.1962
▁जम्मू	-11.1963
▁মধ্যবর্তী	-11.1963
ेन्द्र	-11.1964
▁সাহিত্যে	-11.1964
▁தனியார்	-11.1964
▁पड	-11.1964
தற்கான	-11.1965
▁Di	-11.1966
▁করি	-11.1966
▁অনুষ্ঠানে	-11.1969
▁வகுப்பு	-11.197
বর্তমান	-11.197
▁याने	-11.1971
▁నిర్వహించ	-11.1972
#	-11.1972
वले	-11.1973
▁స్త్రీలు	-11.1973
▁युक्त	-11.1974
▁పిల్లల	-11.1975
▁কর্মরত	-11.1976
▁மரபணு	-11.1976
▁இருவரும்	-11.198
▁ভেঙে	-11.1981
▁பயன்படுகிறது	-11.1982
▁সৌদি	-11.1982
▁గానం	-11.1984
ix	-11.1986
▁உரோமை	-11.1988
ுவதன்	-11.1989
▁বঙ্গ	-11.1989
▁కొద్ది	-11.199
▁தெய்வ	-11.1991
▁याद	-11.1992
▁মসজিদের	-11.1994
▁दैनिक	-11.1994
वाली	-11.1995
▁कादंबरी	-11.1995
▁బంగారు	-11.1996
▁வெள்ளி	-11.1996
▁உள்ளடக்க	-11.1998
साहेब	-11.2
▁व्यंजन	-11.2
▁স্বল্প	-11.2
▁গেম	-11.2001
▁করলেন	-11.2003
வரி	-11.2005
களாகவும்	-11.2006
▁అంగ	-11.2009
க்கொண்டு	-11.2011
▁২০০	-11.2012
ala	-11.2013
▁उल्लेखनीय	-11.2013
▁குறு	-11.2013
▁घड	-11.2013
सम	-11.2015
▁కౌ	-11.2015
▁रामायण	-11.2016
▁வகைகள்	-11.2018
▁बराबर	-11.2019
इन	-11.2019
▁लक्षण	-11.2019
▁मिळाला	-11.202
▁தென்னிந்திய	-11.2021
▁বসে	-11.2022
▁রাস্তাটি	-11.2024
▁মেনে	-11.2024
▁నిర్వహించిన	-11.2025
▁கொள்ளும்	-11.2025
▁অনুসন্ধান	-11.2025
▁उपयुक्त	-11.2026
ाह	-11.2028
▁পর্ব	-11.2028
▁धारण	-11.203
▁अर्जुन	-11.2032
▁व्याकरण	-11.2032
▁১৯৬৫	-11.2034
▁ராம	-11.2034
▁இவற்றின்	-11.2035
▁फूल	-11.2036
ढ़	-11.2038
কুমার	-11.2039
रंग	-11.204
▁மண்	-11.204
▁పదం	-11.2041
ార్	-11.2041
▁భాషలో	-11.2043
▁श्रृंखला	-11.2044
▁எண்ணெய்	-11.2045
▁வரலாற்றில்	-11.2045
▁১৯৫২	-11.2045
▁மொத்தம்	-11.2047
▁భౌతిక	-11.2048
▁দলকে	-11.2048
▁సంఘ	-11.205
▁லோ	-11.2052
▁অর	-11.2054
ভাগ	-11.2055
స్తాయి	-11.2056
▁अर्ध	-11.2057
▁ওয়েব	-11.206
ज्ञान	-11.2061
▁তম	-11.2062
▁इंटरनेट	-11.2063
▁El	-11.2067
োন	-11.2068
▁नया	-11.2069
వాస	-11.2069
▁शो	-11.2072
▁दर्जा	-11.2074
த்தினால்	-11.2074
▁என்றாலும்	-11.2074
▁అయి	-11.2075
▁অ্যাকাডেমি	-11.2075
▁বর্ষসেরা	-11.2075
▁பச்சை	-11.2076
▁ফিল্ম	-11.2076
▁পরিবারে	-11.2076
త్వ	-11.2078
ভেন	-11.208
யான்	-11.208
▁मराठा	-11.2081
▁যত	-11.2081
ram	-11.2085
జో	-11.2086
▁பரிந்துரை	-11.2086
▁सर्वोत्तम	-11.2088
▁திருவிழா	-11.2088
▁अवतार	-11.2088
▁हार	-11.2092
िर	-11.2095
▁போலவே	-11.2095
In	-11.2095
হান	-11.2096
▁அடையாளம்	-11.2096
कर्ता	-11.2098
rit	-11.2099
▁বাগান	-11.21
▁প্রবন্ধ	-11.2101
▁కాబట్టి	-11.2107
மம்	-11.2109
मार्ग	-11.2109
సర్	-11.211
লস	-11.211
▁अम	-11.2111
▁சிங்கள	-11.2111
▁कन्या	-11.2113
▁বরিশাল	-11.2113
▁संप्रदाय	-11.2113
▁காட்டிலும்	-11.2115
▁মৌল	-11.2115
▁సైన్యం	-11.2116
▁भक्ति	-11.2117
▁ইউরো	-11.2119
▁চলাচল	-11.2119
पूर्वक	-11.212
▁অগ্রসর	-11.2126
▁भार	-11.2126
జ్ఞ	-11.2127
▁রেড	-11.2128
▁சங்கம்	-11.213
கூட	-11.2131
▁Su	-11.2132
▁other	-11.2132
పరి	-11.2133
▁Dr	-11.2133
▁সংবাদপত্র	-11.2134
గూడెం	-11.2136
▁मासिक	-11.2137
▁சிறை	-11.2137
स्त्र	-11.2137
மாய்	-11.2138
▁राधा	-11.2138
▁लंदन	-11.2138
▁திருத்த	-11.2139
▁বিংশ	-11.2139
▁আত্ম	-11.214
▁77	-11.214
▁ठिकाण	-11.2141
▁शिर	-11.2144
▁அடையாள	-11.2145
▁औ	-11.2145
▁পালিয়ে	-11.2146
▁మరి	-11.2147
्ट	-11.2147
शिया	-11.2148
हु	-11.2148
ఢ	-11.2148
▁পতাকা	-11.2149
க்கர்	-11.2151
▁মাই	-11.2151
▁আনুষ্ঠানিকভাবে	-11.2153
▁পরিমাণে	-11.2155
কেও	-11.2156
▁চিহ্ন	-11.2156
▁ভূষিত	-11.2157
▁অবশেষে	-11.2157
▁வீடு	-11.2159
ப்பட்டுள்ள	-11.2159
▁పుష్ప	-11.216
▁আকারের	-11.2161
▁समा	-11.2163
▁চর	-11.2163
▁पति	-11.2164
▁ऑलिंपिक	-11.2164
▁దర్శనీయ	-11.2164
▁গৃহ	-11.2165
▁ప్రధానంగా	-11.2168
▁Li	-11.2168
র্ট	-11.217
▁குடியேற்ற	-11.2172
▁দো	-11.2172
▁கடற்கரை	-11.2173
দাস	-11.2174
▁झाल्या	-11.2175
left	-11.2175
▁क्रमांक	-11.2176
▁నాగేశ్వరరావు	-11.2177
▁বৃদ্ধির	-11.2177
▁பாடசாலை	-11.2178
▁కథలు	-11.2178
তেন	-11.218
lin	-11.218
▁Do	-11.2181
▁याला	-11.2182
▁प्रशासन	-11.2182
▁రక్త	-11.2182
▁காட்டு	-11.2182
▁मौत	-11.2183
ven	-11.2184
▁డ	-11.2187
৩৩	-11.2189
▁उम्र	-11.219
▁உள்ளடக்கிய	-11.219
కై	-11.2195
▁হোটেল	-11.2195
ष्ठ	-11.2196
▁தென்னாப்பிரிக்க	-11.2197
▁கட்டப்பட்ட	-11.2197
▁पाव	-11.2198
भी	-11.2198
▁গ্যা	-11.2198
▁पुरवठा	-11.2199
ाऊ	-11.22
▁उंच	-11.2201
ीं	-11.2202
▁సినిమాలో	-11.2203
ीने	-11.2205
▁উপস্থাপন	-11.2206
▁नावे	-11.2206
ానంద	-11.2209
▁ওজন	-11.2212
if	-11.2212
ंगी	-11.2215
▁अपराध	-11.2215
▁हमारे	-11.2215
▁महत्त्वपूर्ण	-11.2215
▁राह	-11.2216
▁విజ్ఞాన	-11.2216
▁तेज	-11.2217
▁য	-11.2217
व्ही	-11.222
స్ప	-11.222
▁सिटी	-11.222
ডেন	-11.2221
▁নির্ণয়	-11.2221
▁जनरल	-11.2222
▁বিতর্ক	-11.2222
పాక	-11.2223
▁रखते	-11.2223
▁०	-11.2223
த்தூர்	-11.2225
षा	-11.2227
▁विद्यमान	-11.2227
▁వర్ణ	-11.2228
గ్గ	-11.2229
▁நீளம்	-11.223
জান	-11.2231
▁ম্যাগাজিন	-11.2232
▁ভৌগোলিক	-11.2234
▁नील	-11.2234
▁দিল্লি	-11.2236
▁అడవి	-11.2236
▁সমালোচক	-11.2239
▁সিরিয়া	-11.2241
▁आश्रम	-11.2241
▁घाटी	-11.2241
▁స్వతంత్ర	-11.2242
ver	-11.2244
▁పొట్టి	-11.2244
नियम	-11.2245
రాం	-11.2246
▁காம	-11.2247
সিন	-11.2247
প্ত	-11.2248
▁நடத்திய	-11.2249
▁250	-11.2251
▁मिश्र	-11.2252
▁సాంస్కృతిక	-11.2253
▁ইনিংসে	-11.2254
▁খাঁ	-11.2254
▁நன்கு	-11.2254
▁அறை	-11.2254
▁पं	-11.2255
▁அறியப்பட்ட	-11.2255
ाल	-11.2257
po	-11.2257
ham	-11.2259
▁పుట్టిన	-11.2262
▁பிரபல	-11.2264
▁नेहरू	-11.2266
ug	-11.2266
ji	-11.2266
▁అయినప్పటికీ	-11.2266
यें	-11.2267
ிப்	-11.2267
▁দাবী	-11.2267
▁நீல	-11.2268
▁Vol	-11.2269
▁সোসাইটি	-11.227
▁জার্মানি	-11.227
नों	-11.2271
বীর	-11.2271
ஜெ	-11.2271
▁প্রার্থী	-11.2273
▁জমা	-11.2274
েন্ট	-11.2275
▁वाच	-11.2275
▁எடுத்துக்காட்டு	-11.2275
▁সম্মাননা	-11.2275
van	-11.2277
▁নির্ধারিত	-11.2278
▁অধিকারী	-11.2279
▁రంపచోడవరం	-11.2279
▁কমিটির	-11.2279
▁तारीख़	-11.2279
নির	-11.228
▁शकतात	-11.2281
పేట్లో	-11.2282
▁বন্দী	-11.2282
▁శా	-11.2282
▁మద్రాసు	-11.2285
▁মুখোপাধ্যায়	-11.2285
বোধ	-11.2285
▁একাদশ	-11.2285
▁अकबर	-11.2286
▁110	-11.2286
▁பிரதமர்	-11.2287
▁சரியான	-11.2289
▁অপারেশন	-11.2291
▁(3	-11.2292
▁দিয়েছে	-11.2293
ుతారు	-11.2294
▁বিশেষজ্ঞ	-11.2295
▁காதல்	-11.2296
▁వున్నవి	-11.2296
▁धरण	-11.2297
▁পঞ্চায়েত	-11.2298
ஒரு	-11.2298
▁विष्णू	-11.2302
▁உரிய	-11.2302
▁ఫల	-11.2302
దర	-11.2306
▁পয়েন্ট	-11.2308
ica	-11.2308
▁89	-11.2309
▁ஹி	-11.231
াত	-11.2311
▁আশ্রয়	-11.2311
▁ब्रिटेन	-11.2311
▁भेद	-11.2313
▁স্বাক্ষর	-11.2313
স্তি	-11.2314
ावा	-11.2315
নোর	-11.2316
থে	-11.2317
▁রিচার্ড	-11.2317
▁మనిషి	-11.2317
▁দেয়ার	-11.2318
dy	-11.2318
ুল্লাহ	-11.2318
▁79	-11.232
మర్	-11.2321
नु	-11.2321
ர்ஸ்	-11.2324
▁কোর্স	-11.2324
कुमार	-11.2325
গাঁও	-11.2325
▁ஏற்க	-11.2325
▁व्रत	-11.2328
▁दलित	-11.2329
▁व्यापारी	-11.2329
▁Lo	-11.2329
▁యూనియన్	-11.233
▁मग	-11.2331
▁सहयोग	-11.2332
▁தொ	-11.2335
▁আনুষ্ঠানিক	-11.2335
▁গোয়েন্দা	-11.2337
ान्त	-11.2338
▁86	-11.2339
▁धीरे	-11.2339
৮৭	-11.2339
ரிக்	-11.2341
▁चारों	-11.2343
ব্রা	-11.2344
▁এখানকার	-11.2344
ార	-11.2344
▁dis	-11.2344
▁থা	-11.2344
ావ	-11.2345
வரின்	-11.2346
Ma	-11.235
▁నేషనల్	-11.235
▁கோல்	-11.235
థా	-11.235
▁पाई	-11.235
বির	-11.2351
▁கூறி	-11.2354
▁रोक	-11.2354
க்குரிய	-11.2355
▁సభ	-11.2356
▁व्य	-11.2356
▁ফ্যা	-11.2356
▁చింత	-11.2357
▁আইনের	-11.2359
▁গবেষণার	-11.2361
▁ఆట	-11.2362
▁दहा	-11.2362
▁பெரிதும்	-11.2363
tion	-11.2363
ంబు	-11.2365
▁பயன்படுத்தும்	-11.2366
▁கூடுதல்	-11.2366
नीय	-11.2366
▁ध्वनि	-11.2366
க்கப்பட்டது	-11.2367
▁संप	-11.2368
▁সেট	-11.2368
▁भो	-11.2369
ae	-11.2369
▁कडून	-11.237
▁সূরা	-11.237
హో	-11.2372
▁পুরাণ	-11.2373
र्थ	-11.2374
▁खु	-11.2375
▁அடை	-11.2376
ऐ	-11.2377
▁रेडियो	-11.2378
▁వృక్ష	-11.238
art	-11.2381
கார	-11.2381
▁ed	-11.2383
ings	-11.2384
chi	-11.2384
▁காரண	-11.2388
▁பரிமாற்ற	-11.2388
▁ঝ	-11.2389
▁১৯৭৭	-11.239
৯৮	-11.239
▁রাই	-11.2391
▁त्याच	-11.2394
ஹி	-11.2394
▁মোবাইল	-11.2395
▁படத்தில்	-11.2395
ाकार	-11.2395
▁లె	-11.2398
4)	-11.2398
▁सिनेमा	-11.2399
কন	-11.24
▁मोहन	-11.2401
▁డాక్టర్	-11.2401
सूत्र	-11.2402
▁अर्थशास्त्र	-11.2402
▁महाराष्ट्रात	-11.2403
▁संवाद	-11.2404
ెం	-11.2405
▁மனிதர்	-11.2405
▁एक्स	-11.2405
চ্ছ	-11.2406
▁অনুরূপ	-11.2406
ாய	-11.2407
▁திரி	-11.2408
वाई	-11.2409
৯০	-11.241
িও	-11.241
▁గాయ	-11.2411
▁काशी	-11.2414
▁సిద్ధ	-11.2415
▁सफलता	-11.2416
कड	-11.2417
▁जोड़	-11.2417
பால	-11.2419
▁अमेरिकेच्या	-11.2419
▁96	-11.242
பகுதி	-11.2421
▁कोणत्याही	-11.2422
▁मिलते	-11.2426
ालय	-11.2427
प्रमाणे	-11.2427
▁నంద్యాల	-11.2428
▁सर्वप्रथम	-11.2428
▁বেন	-11.2428
▁ব্রা	-11.2429
▁তাপ	-11.2431
▁प्रेरणा	-11.2433
▁ডু	-11.2433
form	-11.2433
▁வருவாய்	-11.2434
పేట్	-11.2436
▁தமிழ்நாட்டு	-11.2436
▁जिल्ह्यात	-11.2437
▁1936	-11.2437
फर	-11.2437
top	-11.2439
▁प्रबंधन	-11.2439
▁विभाजन	-11.244
▁जहाज	-11.244
▁జర్మనీ	-11.2441
▁পড়া	-11.2442
▁రచయితలు	-11.2443
फे	-11.2444
▁बनने	-11.2445
▁निर्भर	-11.2447
ப்பதற்கு	-11.2448
▁முழுமையாக	-11.2448
▁ప్రపంచంలో	-11.2452
▁দৃষ্টি	-11.2452
▁కోట్ల	-11.2453
▁গেমসের	-11.2454
▁रन	-11.2457
▁अवसर	-11.2457
▁১৯৬৮	-11.2459
▁రూపంలో	-11.2459
भाषा	-11.2459
▁अधिनियम	-11.246
తర	-11.2462
▁அடுக்கு	-11.2463
விட்ட	-11.2465
▁Bar	-11.2466
▁সুন্দর	-11.2466
▁విద్యుత్తు	-11.2468
▁অনেকে	-11.2471
▁क़	-11.2472
▁বংশ	-11.2472
▁মাঝামাঝি	-11.2473
▁পাকিস্তানে	-11.2473
ांतील	-11.2473
▁মন্ত্রণালয়	-11.2473
▁सूक्ष्म	-11.2475
▁உள்ளார்	-11.2477
▁प्रताप	-11.2478
गम	-11.2478
▁জানতে	-11.2479
▁নৌ	-11.2481
▁মাত্রা	-11.2481
▁నాయుడు	-11.2482
▁మండలాలు	-11.2482
ினாலும்	-11.2485
▁বিশ্বকাপে	-11.2486
▁आमतौर	-11.2486
பல	-11.2488
▁খ্রিষ্টাব্দ	-11.2489
दल	-11.2489
▁முக்கியத்துவம்	-11.249
▁আক্রমণের	-11.249
▁বার্	-11.2491
ాయని	-11.2491
▁అతడు	-11.2494
▁অঞ্চলটি	-11.2494
▁৪৯	-11.2495
▁প্লা	-11.2496
▁அரி	-11.2497
हू	-11.2498
▁সাম	-11.2499
৮৯	-11.2499
▁শ্রমিক	-11.2499
▁হ্রদ	-11.25
▁அறிந்த	-11.2502
▁అతనికి	-11.2502
▁நடைமுறை	-11.2503
▁చికిత్స	-11.2506
মাল	-11.2507
ome	-11.2507
కాలంలో	-11.2508
▁লড়াই	-11.2511
▁সংকেত	-11.2513
▁Life	-11.2514
ிருக்கலாம்	-11.2514
माल	-11.2514
▁பயன்	-11.2516
ile	-11.2517
৩২	-11.2517
▁Per	-11.2517
▁গাড়ি	-11.2518
▁सांग	-11.2519
▁फिल्मों	-11.2519
ுரு	-11.2521
▁ஆகியவற்றில்	-11.2522
▁पुराने	-11.2522
▁ग्रन्थ	-11.2523
▁ছয়টি	-11.2523
▁చదువు	-11.2523
▁మొదలు	-11.2524
▁भाषेत	-11.2526
ণের	-11.2526
▁আহত	-11.2529
▁மலர்	-11.253
▁నూతన	-11.2531
▁मौसम	-11.2532
bin	-11.2533
▁రూప	-11.2534
▁মুর	-11.2534
বৈজ্ঞানিক	-11.2534
শাস্ত্র	-11.2534
▁मूर्ती	-11.2534
▁வட்டம்	-11.2537
▁ব্যবস্থাপনা	-11.2537
வல	-11.2539
నాటి	-11.2539
▁முனைவர்	-11.254
▁இணைந்த	-11.2541
▁திறந்த	-11.2541
▁విశేష	-11.2542
▁ஆன	-11.2544
▁বিদেশী	-11.2545
▁স্কুলের	-11.2545
▁ఇండియన్	-11.2546
▁బహుమతి	-11.2546
▁நாட்ட	-11.2546
▁மூளை	-11.2547
মুখ	-11.2548
▁சுவாமி	-11.2548
▁எலும்பு	-11.2548
▁सहज	-11.2549
▁वर्मा	-11.2549
పూర్లో	-11.255
ளு	-11.2551
த்திலேயே	-11.2551
▁ম্যানেজার	-11.2552
জনিত	-11.2553
লাভ	-11.2553
वंत	-11.2553
पूर्वी	-11.2553
ద్ధ	-11.2555
▁ध्वज	-11.2555
ునిగా	-11.2556
▁পলি	-11.2557
▁নাইট	-11.2558
ஸில்	-11.2559
ாகக்	-11.2561
▁১৯৫৪	-11.2561
ங்களால்	-11.2563
রাস	-11.2564
▁উদ্দিন	-11.2564
▁విదేశీ	-11.2564
▁আউট	-11.2566
▁சென்றார்	-11.2566
▁கதிர்	-11.2567
ளவில்	-11.2567
▁পটভূমিতে	-11.2567
▁काउंटी	-11.2567
वती	-11.257
▁కొనసాగ	-11.257
முடைய	-11.257
▁সৈন্য	-11.2571
▁வெளியான	-11.2571
▁রাজ্যে	-11.2571
ाक	-11.2572
▁খেলেন	-11.2573
▁पट	-11.2574
▁रानी	-11.2575
▁शुभ	-11.2575
हित	-11.2576
▁एव	-11.2576
▁सीता	-11.2576
▁मल	-11.2579
▁চার্লস	-11.258
▁సార్లు	-11.258
▁పాడ	-11.2581
▁केलेली	-11.2582
జిల్లా	-11.2583
ுவதை	-11.2583
ండు	-11.2585
tor	-11.2585
▁பரவ	-11.2586
▁माह	-11.2587
▁ముస్లిం	-11.2588
▁रण	-11.2589
▁ইন্দো	-11.259
▁आरम्भ	-11.2591
ani	-11.2591
ంటు	-11.2594
▁जाऊ	-11.2594
▁বস্তুর	-11.2595
▁அமைந்துள்ளன	-11.2595
▁লিগের	-11.2596
ండా	-11.2596
▁ক্যাথলিক	-11.2598
▁বরাবর	-11.2598
▁తరగతి	-11.2598
▁রবীন্দ্রনাথ	-11.26
ng	-11.2601
tal	-11.2602
▁বিচ্ছিন্ন	-11.2603
▁लॉ	-11.2603
▁স্টেডিয়াম	-11.2603
▁ఆల్	-11.2604
▁৪৫	-11.2605
▁৩২	-11.2606
उन	-11.2607
▁బొమ్మ	-11.2607
▁கொல்ல	-11.2607
▁যেন	-11.2608
நாடு	-11.2608
வைக்	-11.2609
యిన	-11.261
সির	-11.2612
▁ஆவர்	-11.2612
▁లభించింది	-11.2612
▁কর্পোরেশন	-11.2613
ेंद्र	-11.2613
▁వ్యతిరేకంగా	-11.2613
▁३१	-11.2615
వలసిన	-11.2615
நாதன்	-11.2617
▁வீட்டு	-11.2617
▁विधान	-11.2619
▁108	-11.2621
▁வகைப்படுத்த	-11.2623
▁ய	-11.2623
▁சிந்தனை	-11.2625
▁পদ্ধতির	-11.2626
▁डॉलर	-11.2627
▁আছেন	-11.2628
▁उनसे	-11.2628
▁சிலை	-11.2629
▁করবেন	-11.263
ার্ড	-11.2632
పోయింది	-11.2634
আপ	-11.2634
▁समर्थ	-11.2634
▁நம்ப	-11.2635
टिक	-11.2636
ko	-11.2638
▁राहिले	-11.2639
▁కన్నడ	-11.2639
▁জীবনী	-11.264
▁অ্যাল	-11.2643
▁Te	-11.2644
▁(17	-11.2644
▁அண்ட	-11.2644
▁বোমা	-11.2644
जित	-11.2645
▁हनुमान	-11.2645
▁रसायन	-11.2646
ning	-11.2647
ங்கோ	-11.2648
▁நபர்	-11.265
▁Ja	-11.2651
▁గుర్తు	-11.2653
▁அடர்த்தி	-11.2653
▁তারকা	-11.2653
▁निर्देशक	-11.2653
▁চিকিৎসক	-11.2656
▁ఉన్నది	-11.2657
▁முறையே	-11.2658
▁স্বীকৃত	-11.266
▁టా	-11.2661
▁విధానం	-11.2662
नू	-11.2664
▁রিপোর্ট	-11.2665
ন্থ	-11.2665
▁আগের	-11.2666
▁बोर्ड	-11.2667
▁வாழ	-11.2667
▁பய	-11.2669
mon	-11.2671
▁ग्रीक	-11.2672
▁হিসাব	-11.2674
த்திலுள்ள	-11.2675
पत	-11.2675
▁நீதி	-11.2676
▁জাতির	-11.2676
చేసి	-11.2676
▁திரவ	-11.2677
াক	-11.2677
এক	-11.268
▁அளவை	-11.2681
▁কার্বন	-11.2681
▁উপস্থিতি	-11.2683
ஸ்டர்	-11.2684
▁మర	-11.2686
यान	-11.269
▁এশীয়	-11.2693
▁৯০	-11.2694
▁४०	-11.2694
▁நடித்துள்ளனர்	-11.2694
▁জোর	-11.2695
▁உடல	-11.2696
▁இருந்தனர்	-11.2696
▁பொருட்	-11.2696
▁पाप	-11.2698
▁অনুমোদন	-11.2698
▁வாயு	-11.2699
▁తిరుగుబాటు	-11.2701
▁கூறிய	-11.2701
▁மாவட்டத்தின்	-11.2703
▁शिक	-11.2704
▁পরিবেশন	-11.2704
▁மாணவர்கள்	-11.2704
▁இச்	-11.2705
▁স্বপ্ন	-11.2706
▁गेल्या	-11.2706
▁মাথা	-11.2707
ढी	-11.2708
లక్ష్మి	-11.2708
▁প্রান্ত	-11.2708
াঞ্চল	-11.271
▁காங்கிரஸ்	-11.2712
▁पुनः	-11.2712
पण	-11.2713
▁आयोग	-11.2714
▁खाली	-11.2715
▁शेष	-11.2719
tan	-11.2719
▁শ্রীলঙ্কার	-11.272
ग्न	-11.2721
▁राशि	-11.2721
▁1937	-11.2721
▁৫১	-11.2722
▁அறிஞர்	-11.2722
1)	-11.2722
দল	-11.2723
గే	-11.2724
▁মাহমুদ	-11.2725
▁గౌరవ	-11.2729
▁மலேசியா	-11.273
▁పాల్వంచ	-11.2732
గొ	-11.2732
▁పరీక్ష	-11.2732
▁গ্রন্থাগার	-11.2732
पार	-11.2732
▁বিদ্যালয়ের	-11.2733
▁ठ	-11.2733
▁रै	-11.2735
११	-11.2736
▁महिलाओं	-11.2737
▁ధర	-11.2738
▁री	-11.2738
▁पशु	-11.2738
▁Gu	-11.2739
्‌	-11.274
▁அட்டை	-11.274
▁वेळ	-11.2741
▁Journal	-11.2742
▁రాజ్యం	-11.2742
दर्शन	-11.2743
▁जॉर्ज	-11.2743
▁থ	-11.2743
amp	-11.2743
▁विद्वान	-11.2743
▁தோட்ட	-11.2744
ँग	-11.2744
सल	-11.2745
ণা	-11.2745
চু	-11.2747
▁ஈர	-11.2748
ுபவர்	-11.2748
▁ஹை	-11.2749
▁చేస్తున్న	-11.2751
▁উন্মুক্ত	-11.2752
▁प्रधानमंत्री	-11.2752
▁காந்த	-11.2754
▁১৯৬৪	-11.2754
▁வழங்கிய	-11.2754
▁उठा	-11.2755
▁தடுக்க	-11.2756
ందని	-11.2756
▁लिहिले	-11.2758
▁ప్రదేశాలు	-11.2758
▁ఏర్పడిన	-11.2759
▁கிட்டத்தட்ட	-11.2759
▁১৯৬৩	-11.2759
▁భక్తి	-11.276
▁शहरों	-11.2761
తలు	-11.2762
▁ప్రకృతి	-11.2766
▁ప్రదర్శించ	-11.2767
▁ठेवले	-11.2768
▁முறைகள்	-11.277
▁কার্ল	-11.2771
ப்பணி	-11.2772
র্থ	-11.2774
▁விவரிக்க	-11.2774
ுவ	-11.2777
৩৮	-11.2777
▁टा	-11.2777
థి	-11.2779
▁স্থানের	-11.2779
▁அணிக்கு	-11.278
▁எவ்வாறு	-11.278
▁மூத்த	-11.2781
▁देऊन	-11.2781
▁२००५	-11.2782
▁அமைப்பை	-11.2783
▁ঘণ্টা	-11.2783
লিক	-11.2783
▁எழுதினார்	-11.2784
▁रूस	-11.2784
▁నిజామాబాదు	-11.2786
▁యునైటెడ్	-11.2786
▁খবর	-11.2786
பாட	-11.2787
▁সংখ্যার	-11.2788
▁ইন্টার	-11.2789
▁मिळते	-11.2793
▁அல	-11.2794
▁উচ্চারণ	-11.2796
▁ஆலய	-11.2796
▁গি	-11.2798
▁যোগ্যতা	-11.2798
ॉल	-11.2799
▁துறையில்	-11.2801
▁இப்ப	-11.2801
ரான்	-11.2804
▁शिल्प	-11.2805
▁রেলপথ	-11.2806
▁প্রশংসা	-11.2806
టరు	-11.2806
▁कोशिश	-11.2806
ोत्तर	-11.2807
▁লিঙ্গ	-11.2808
ন্ন	-11.2812
ier	-11.2814
▁জানায়	-11.2815
▁தலைமையில்	-11.2815
▁বিষয়টি	-11.2815
▁चुकी	-11.2815
▁পাট	-11.2819
▁তরল	-11.282
▁সমাধি	-11.282
▁अर्थव्यवस्था	-11.282
குடி	-11.2822
▁సాధించ	-11.2824
லால்	-11.2825
▁झा	-11.2825
ite	-11.2825
▁वहीं	-11.2826
▁मामले	-11.2826
ick	-11.2826
ేరు	-11.2828
▁List	-11.2829
ল্ট	-11.2829
▁পরীক্ষায়	-11.283
▁বিষ	-11.2831
నాథ	-11.2834
▁88	-11.2835
▁செய்யப்படும்	-11.2837
▁கிரி	-11.2842
▁अल्प	-11.2842
▁కూడిన	-11.2843
▁தோற்றம்	-11.2843
ుకుంది	-11.2843
▁காய	-11.2843
▁মৃত	-11.2844
▁बेटे	-11.2845
▁காரணி	-11.2845
▁கூறு	-11.2845
▁১৯৬৭	-11.2846
▁अधीन	-11.2847
▁ইংল্যান্ডে	-11.2847
▁प्रान्त	-11.2848
சையர்	-11.285
ाम	-11.2852
▁भारताचे	-11.2852
िकल	-11.2852
ाचार्य	-11.2853
▁অনুশীলন	-11.2854
▁తనకు	-11.2854
▁இந்தச்	-11.2856
చ్ఛ	-11.2856
▁செயலாளர்	-11.2857
హార	-11.2857
▁সেল	-11.286
▁రష్యా	-11.286
▁পরিষদের	-11.2861
हीन	-11.2861
▁இயக்கிய	-11.2862
▁ফো	-11.2862
▁பயனர்	-11.2863
▁আন্দোলনে	-11.2864
పర	-11.2866
कोट	-11.2867
▁शांत	-11.2868
▁நிறைந்த	-11.287
▁వ్యాసం	-11.287
Ch	-11.2872
▁अल्लाह	-11.2872
▁सम्	-11.2873
▁আবিষ্কৃত	-11.2874
ठी	-11.2874
▁ইন্ডিজ	-11.2875
▁నో	-11.2875
▁பார்த்த	-11.2875
র্ড	-11.2876
▁সংবিধান	-11.2876
చో	-11.2878
▁1943	-11.2882
रिस	-11.2885
▁ஒன்ற	-11.2885
▁చేతి	-11.2886
▁చక్ర	-11.2886
▁अधि	-11.2887
▁विपरीत	-11.2888
▁जागा	-11.2888
▁కాం	-11.2888
▁डॉक्टर	-11.2888
ఫీ	-11.289
▁టె	-11.2891
▁ফাইনালে	-11.2892
▁महीने	-11.2893
▁మొదట	-11.2894
▁আকাশ	-11.2895
▁पोस्ट	-11.2897
ure	-11.2899
कृष्ण	-11.2899
▁கொடி	-11.2899
▁ইউরোপে	-11.29
▁मशीन	-11.2901
▁Q	-11.2901
மூ	-11.2901
ट्ट	-11.2902
▁মেডেল	-11.2902
▁பாண்டிய	-11.2903
▁நட்சத்திர	-11.2903
▁అర్	-11.2904
▁మూ	-11.2904
▁এত	-11.2904
▁వైద్యుడు	-11.2906
▁கிலோ	-11.2907
▁চক্রবর্তী	-11.2908
▁கொல்லப்பட்டனர்	-11.2909
வையும்	-11.2909
▁असल्याचे	-11.2909
களாலும்	-11.2909
▁अरबी	-11.2912
▁आइ	-11.2913
க்குக்	-11.2916
▁उत्पाद	-11.2916
▁अध्याय	-11.2921
▁पडले	-11.2923
▁చేయబడింది	-11.2924
▁माने	-11.2924
বাড়ী	-11.2926
▁श्र	-11.2926
▁హి	-11.2929
▁आदिवासी	-11.2929
▁ক্ষতি	-11.293
za	-11.2932
▁ঈশ্বর	-11.2932
▁नदीच्या	-11.2933
▁செயல்பாடு	-11.2934
▁సగటు	-11.2935
▁Research	-11.2936
मिन	-11.2936
▁రాజ్య	-11.2936
▁मध्यम	-11.2937
old	-11.2938
▁বালিকা	-11.2939
ர்களின்	-11.2939
పం	-11.2941
మొ	-11.2941
▁लग	-11.2942
▁జీ	-11.2942
▁இஸ்லாமிய	-11.2944
▁प्रकारच्या	-11.2945
ऑ	-11.2946
ాన్	-11.2946
▁जपान	-11.2947
▁రాజాం	-11.2947
▁బ్ర	-11.2948
ापर्यंत	-11.2949
ंडे	-11.2949
▁ఉంటే	-11.295
▁దృష్టి	-11.295
▁पाण्याचा	-11.2952
▁பதிப்பகம்	-11.2954
▁কক্ষ	-11.2955
▁স্বীকার	-11.2956
▁मठ	-11.2957
স্টি	-11.2959
ন্ধ	-11.296
▁यश	-11.2961
▁जिनके	-11.2961
৯৩	-11.2962
▁ताल	-11.2962
▁ব্রহ্ম	-11.2963
▁நுட்ப	-11.2963
வாறு	-11.2964
వలసలో	-11.2967
▁लक्ष	-11.2968
▁प्रतियोगिता	-11.297
নেট	-11.297
क्टर	-11.2971
▁फैला	-11.2971
▁সনে	-11.2972
▁সর	-11.2972
க்கே	-11.2972
▁జీవితం	-11.2973
▁புராண	-11.2974
వార	-11.2975
▁संभव	-11.2977
▁குறிக்கிறது	-11.2978
தோடு	-11.2978
ుడ	-11.2978
బర్	-11.2979
▁సహాయ	-11.2982
gi	-11.2983
▁ஆய்வுகள்	-11.2983
కరణ	-11.2983
தூ	-11.2984
▁ఇతడు	-11.2984
దల	-11.2986
▁करताना	-11.2987
বিল	-11.2988
▁मैच	-11.2989
▁ট্রান্স	-11.2991
▁স্থানান্তরিত	-11.2992
யுடைய	-11.2992
▁வழக்கமாக	-11.2993
ంపు	-11.2997
▁মনোনয়ন	-11.2997
▁அந்தப்	-11.2998
সিয়া	-11.2998
▁আগুন	-11.2998
▁నీవు	-11.3
▁పిల్లలు	-11.3001
अलग	-11.3002
▁মধ্যকার	-11.3003
பொருள்	-11.3003
▁உருவாக்கி	-11.3004
▁கலாச்சார	-11.3004
வற்றை	-11.3004
▁క్యా	-11.3004
ting	-11.3005
▁রাজনীতি	-11.3006
▁பொறி	-11.3008
పోతుంది	-11.301
गीत	-11.301
▁किले	-11.3011
மிட	-11.3011
▁पश्चात	-11.3011
▁सौर	-11.3013
▁पुण्य	-11.3013
ாளி	-11.3013
నై	-11.3014
वाह	-11.3016
খালী	-11.3019
▁प्रारंभिक	-11.302
▁চাঁদ	-11.302
▁নু	-11.3022
கீ	-11.3022
▁கூட்டணி	-11.3022
बर्ग	-11.3025
▁स्ट	-11.3026
▁ఇచ్చారు	-11.3027
▁नावाच्या	-11.3027
▁உடை	-11.3029
▁மன்னன்	-11.3029
▁పండుగ	-11.303
▁केरल	-11.3032
▁তন্মধ্যে	-11.3032
▁అధికార	-11.3032
▁ফিল্ড	-11.3034
▁কণ্ঠ	-11.3035
▁வீதம்	-11.3036
शायर	-11.3037
▁করতো	-11.3037
▁விருதுகள்	-11.3038
▁সাম্প্রতিক	-11.3039
▁वाक्य	-11.304
वै	-11.304
▁বিজ্ঞানের	-11.304
களோடு	-11.304
▁জনগণের	-11.304
▁ప్రారంభించారు	-11.3041
▁தோன்ற	-11.3041
तन	-11.3042
▁Ad	-11.3043
▁রূপান্তর	-11.3045
▁निर्धारित	-11.3046
▁இரவு	-11.3047
▁मज	-11.3047
নায়	-11.3049
ఠ	-11.3049
க்கொண்ட	-11.305
▁குரல்	-11.3051
▁पोट	-11.3052
▁চাহিদা	-11.3053
▁চল	-11.3053
ங்கை	-11.3053
ப்பான	-11.3053
▁তোলে	-11.3056
४०	-11.3057
day	-11.3058
▁ஒன்றில்	-11.3058
ந்தர்	-11.3058
▁দপ্তর	-11.306
▁দিনাজপুর	-11.306
▁সেঞ্চুরি	-11.306
फ़ेयर	-11.306
నూరు	-11.306
দর	-11.3061
▁परम	-11.3063
▁உண்மையான	-11.3063
▁ইউনিট	-11.3064
▁கோப்பு	-11.3065
▁সম্ভাব্য	-11.3067
den	-11.3069
न्ड	-11.3071
▁தொடங்கிய	-11.3071
▁కూ	-11.3072
▁विभाजित	-11.3074
▁১৯৪০	-11.3074
▁di	-11.3075
▁வருகிறார்	-11.3078
▁మహిళా	-11.3078
▁महाराजा	-11.3078
▁সমন্বয়ে	-11.3078
चल	-11.3079
పాద	-11.3082
▁கோண	-11.3083
▁வாய்	-11.3087
ूल	-11.3087
धन	-11.3087
▁शारीरिक	-11.3087
▁সিনেমা	-11.3088
▁कौ	-11.3089
▁গ্রন্থের	-11.3089
పుడు	-11.309
▁নির্বাহী	-11.309
৩১	-11.3091
য়ী	-11.3091
▁அர	-11.3092
▁कार्बन	-11.3093
▁கணக்கிட	-11.3095
ee	-11.3095
▁Po	-11.3098
▁కళ	-11.3099
▁কালী	-11.31
▁कार्यों	-11.31
▁অভিজ্ঞতা	-11.3101
घाट	-11.3101
ులుగా	-11.3101
▁அகாதமி	-11.3101
▁ஏற்றுக்கொள்ள	-11.3101
▁போரின்	-11.3102
▁93	-11.3102
▁மிகச்	-11.3103
▁দর্শনীয়	-11.3104
యె	-11.3105
▁இயக்குநர்	-11.3105
▁ఆసియా	-11.3106
వార్	-11.3107
ल्यावर	-11.3108
▁পারিবারিক	-11.3108
ராஜ்	-11.3108
६०	-11.3109
▁1938	-11.3109
▁ख़	-11.311
▁இவன்	-11.3112
▁सुद्धा	-11.3115
▁एखाद्या	-11.3115
▁பக்கம்	-11.3116
▁போதும்	-11.3116
▁মৌসুম	-11.3118
▁अल्	-11.312
▁ஆயுத	-11.312
▁ব্রাহ্মণ	-11.3121
▁దండ	-11.3122
▁জৈন	-11.3122
▁ప్రాంత	-11.3124
▁రికార్డు	-11.3124
▁জিয়া	-11.3124
▁வடிவில்	-11.3126
▁సమస్య	-11.3127
▁প্রসারিত	-11.313
१४	-11.313
▁கண்டி	-11.3132
▁ஆக்	-11.3132
्‍	-11.3133
৯৭	-11.3133
▁அணுக	-11.3135
▁যাচ্ছে	-11.3138
▁मुख्यतः	-11.3138
▁அவற்றில்	-11.3139
▁கைது	-11.314
▁২০২১	-11.3141
▁घन	-11.3142
▁हवामान	-11.3144
▁दरबार	-11.3145
▁হর	-11.3147
▁নেমে	-11.3147
நாட்டு	-11.3148
कट	-11.3148
▁உருவாக்கும்	-11.3148
▁సాహిత్యం	-11.3149
▁কারা	-11.3149
▁భువనగిరి	-11.315
▁வேதியியல்	-11.3151
▁ठेव	-11.3151
▁सभ्यता	-11.3151
▁1931	-11.3151
ম্যা	-11.3151
▁బాధ	-11.3152
▁Ne	-11.3152
▁ஞான	-11.3153
ుతాయి	-11.3153
▁தேர்	-11.3154
▁அமைத்த	-11.3158
▁মহান	-11.316
▁இலக்கியம்	-11.3163
▁देशपांडे	-11.3164
▁श्रेष्ठ	-11.3165
▁సంగారెడ్డి	-11.3167
▁সাইট	-11.3167
तक	-11.3167
▁बढ़ा	-11.3169
▁जुड़ा	-11.3171
▁सोड	-11.3173
▁बालक	-11.3173
▁১৯৫৬	-11.3173
సిస్	-11.3174
▁फ्ल	-11.3174
▁মহাকাশ	-11.3175
▁தாம்	-11.3175
ூரில்	-11.3176
▁कोटी	-11.3177
వచ్చును	-11.3179
▁लक्ष्मण	-11.3182
পাত	-11.3182
▁101	-11.3183
▁கருத்த	-11.3183
▁पाल	-11.3184
▁সংশ্লিষ্ট	-11.3184
▁நெடுஞ்சாலை	-11.3185
▁రచనలు	-11.3185
বাই	-11.3187
▁১৯শ	-11.3192
▁अलीगढ़	-11.3193
▁স্বর্ণ	-11.3193
▁డె	-11.3194
ుకుంటారు	-11.3194
kar	-11.3195
ீட்டு	-11.3195
ஞ்	-11.3197
▁நாணய	-11.3197
য়ন	-11.3199
▁पारंपरिक	-11.3199
▁खाद्य	-11.32
▁कर्ण	-11.32
▁91	-11.3201
▁রূপান্তরিত	-11.3201
ial	-11.3202
ములలో	-11.3204
▁উদ্বোধন	-11.3206
৯৬	-11.3207
▁సాధన	-11.3207
▁అర్థ	-11.3208
ல்லி	-11.3211
▁बारा	-11.3212
▁பேருந்து	-11.3212
▁యూ	-11.3213
ैन	-11.3213
१६	-11.3214
▁கூடுதலாக	-11.3214
▁1935	-11.3214
▁125	-11.3216
▁గృహ	-11.3217
▁పురస్కార	-11.3217
▁చెప్పిన	-11.3217
▁मंडल	-11.3218
▁தொடங்க	-11.322
▁गठन	-11.3221
▁শিষ্য	-11.3221
▁பேராசிரியர்	-11.3221
▁लु	-11.3222
▁ஒப்பந்த	-11.3223
स्तान	-11.3225
▁গণিত	-11.3228
▁రిపబ్లిక్	-11.3228
▁రుద్ర	-11.323
৩৭	-11.3231
▁पेट	-11.3232
▁துறைமுக	-11.3232
కోసం	-11.3233
फी	-11.3233
▁তাঁদের	-11.3235
▁परिवहन	-11.3235
ीम	-11.3235
▁மாறாக	-11.3236
ন্না	-11.3237
जवळ	-11.3238
▁आत	-11.3239
▁பொறுத்து	-11.3239
▁कश्मीर	-11.3239
sch	-11.3241
िये	-11.3244
▁ஆதரவு	-11.3246
దన	-11.3248
▁ক্রি	-11.3248
▁पुल	-11.3249
▁আওতাধীন	-11.3249
▁संदेश	-11.325
▁पक्षाचे	-11.3252
▁சிறுகதை	-11.3252
▁எப்படி	-11.3253
జ్జ	-11.3253
কী	-11.3258
▁....	-11.3259
▁பேரரசின்	-11.326
▁तार	-11.3262
▁जेम्स	-11.3263
▁लेता	-11.3264
▁धर	-11.3264
▁১৯২০	-11.3264
▁நடைபெற்றது	-11.3264
▁హె	-11.3264
▁लिखे	-11.3264
▁१९९९	-11.3265
▁ভাগে	-11.3265
▁న్యూ	-11.3266
দ্ধ	-11.3267
ంక	-11.3268
▁கண்டறிய	-11.3268
াহ	-11.3269
▁நிறைவு	-11.327
▁கர்	-11.3271
ক্যা	-11.3271
ara	-11.3273
▁পর্বে	-11.3274
▁গবেষক	-11.3274
र्ग	-11.3274
▁సూ	-11.3275
▁அடிக்கடி	-11.3278
శివ	-11.3278
ानंद	-11.3279
fi	-11.3283
ंभ	-11.3284
▁பில்லியன்	-11.3285
▁ஃப	-11.3285
▁গঠনের	-11.3286
▁প্লে	-11.3288
ரச	-11.329
▁Oxford	-11.3291
க்கிய	-11.3291
▁স্থানান্তর	-11.3291
▁মহাবিদ্যালয়	-11.3291
▁সমষ্টি	-11.3292
ரல்	-11.3292
போல்	-11.3292
▁நகரின்	-11.3292
▁నగర్లో	-11.3293
▁প্রথা	-11.3293
▁উন্নতি	-11.3293
▁करे	-11.3294
▁கூறப்படுகிறது	-11.3294
▁Fa	-11.3296
▁மேலே	-11.3297
▁मुगल	-11.3298
▁en	-11.3301
్ని	-11.3302
▁তেমন	-11.3303
▁फोन	-11.3305
▁కార్యక్రమాలు	-11.3305
ுவதில்லை	-11.3306
▁शैक्षणिक	-11.3306
▁विशेषता	-11.3306
▁వేయ	-11.3306
▁হালকা	-11.3306
▁ఆమెకు	-11.3309
▁वृत्त	-11.3309
▁কারখানা	-11.331
মিল	-11.3311
▁উদ্ধার	-11.3315
?"	-11.3316
▁ఢిల్లీ	-11.3317
▁ராஜா	-11.332
హం	-11.332
▁মিস	-11.3321
▁১৯৬৬	-11.3323
বার্গ	-11.3324
மைப்பு	-11.3326
▁பெருக்க	-11.3326
▁একত্রিত	-11.3327
▁நேரடி	-11.3328
भि	-11.3329
▁पृष्ठ	-11.3329
তায়	-11.3329
▁యుద్ధంలో	-11.3333
▁திருநெல்வேலி	-11.3333
▁ज़िला	-11.3334
▁তাতে	-11.3335
▁পুরনো	-11.3335
ినా	-11.3335
ys	-11.3335
▁থাকায়	-11.3335
▁आण	-11.3335
▁মাটি	-11.3335
▁भव्य	-11.3338
▁கனடா	-11.3339
▁कण	-11.334
वाले	-11.3341
▁पौराणिक	-11.3341
▁సే	-11.3341
▁आकर्षण	-11.3342
▁আন্তঃ	-11.3342
▁আমলে	-11.3343
গ্রা	-11.3343
▁गड	-11.3344
▁పుట్ట	-11.3346
▁పట్ల	-11.3348
▁সপ্তম	-11.3348
पणा	-11.3349
▁அளவிலான	-11.3349
্র	-11.3349
▁text	-11.3351
▁సాధించిన	-11.3352
▁உணர்வு	-11.3352
கண்ட	-11.3353
▁முதலிய	-11.3353
▁Un	-11.3355
▁140	-11.3356
▁ইঞ্চি	-11.3356
▁உருசிய	-11.3357
▁இத்	-11.3359
▁समस्त	-11.336
▁ఖాన్	-11.3365
గూడెంలో	-11.3366
▁डाय	-11.3367
▁প্রকাশনা	-11.3368
▁কৃষক	-11.3368
▁சுர	-11.3368
▁can	-11.3368
▁मानवी	-11.337
▁तीव्र	-11.337
▁ऋषि	-11.337
▁पहा	-11.3371
प्पा	-11.3371
▁ఇతను	-11.3373
न्ट	-11.3373
ts	-11.3374
ধর	-11.3376
ানু	-11.3376
▁वाहतूक	-11.3377
▁সংঘর্ষ	-11.3377
▁अंतरराष्ट्रीय	-11.3377
▁సింహ	-11.3377
ார	-11.3379
▁வாகன	-11.3379
▁கடற்படை	-11.3379
unt	-11.338
▁மக்களவைத்	-11.3381
▁தீர்வு	-11.3381
▁వ్రాసిన	-11.3382
▁মাটির	-11.3384
కాయ	-11.3384
▁সশস্ত্র	-11.3384
▁மின்ன	-11.3388
ும	-11.3388
▁விளைவு	-11.339
▁अवशेष	-11.3391
▁मना	-11.3393
▁அருகே	-11.3393
▁গ্রা	-11.3393
▁झालेला	-11.3394
▁त्याग	-11.3395
టన్	-11.3395
மிய	-11.3396
▁క్రింది	-11.3396
▁पहाड़ी	-11.3398
కము	-11.3399
▁చెక్క	-11.34
మాన	-11.3401
▁পশু	-11.3401
▁झालेले	-11.3401
▁বাম	-11.3403
▁দুজন	-11.3405
సిన	-11.3406
ন্	-11.3406
ராய்	-11.3406
▁தலைவி	-11.3409
पुरी	-11.3409
▁டு	-11.341
வதி	-11.3412
ஈ	-11.3413
▁பெருமை	-11.3414
▁క్ర	-11.3415
▁பண்பாட்டு	-11.3415
संग्रह	-11.3416
டியா	-11.3416
▁மாநகர	-11.3417
▁who	-11.3417
వలస	-11.3418
வர்களுக்கு	-11.3419
▁మనం	-11.3421
కార్	-11.3422
யிலேயே	-11.3423
▁শিল্পের	-11.3423
బాబు	-11.3424
ber	-11.3424
▁১৯৫৮	-11.3426
যোগ	-11.3427
▁छाप	-11.3427
గారు	-11.3428
য়াং	-11.3428
▁৪৭	-11.3429
బుల్	-11.3429
▁వంశ	-11.3431
मू	-11.3431
▁படுத்த	-11.3431
க்கின்	-11.3431
▁என்கிற	-11.3432
▁বিশেষভাবে	-11.3435
▁ঘরোয়া	-11.3435
সিস	-11.3435
▁తెలియ	-11.3435
বৃত্ত	-11.3438
বাসী	-11.3438
ियर	-11.3439
▁గ్రహ	-11.3442
ాంతర	-11.3443
'''	-11.3443
▁எழுதியுள்ளார்	-11.3443
▁उपाय	-11.3444
▁மேற்கொண்ட	-11.3444
ராம்	-11.3445
ికి	-11.3445
▁cell	-11.3445
▁నంద	-11.3446
▁వారిలో	-11.3446
▁நூலக	-11.3447
லூர்	-11.3448
▁करार	-11.3449
க்களில்	-11.3449
▁తే	-11.3449
మాల	-11.345
র্গ্যাল	-11.3452
▁విలువ	-11.3453
▁அவள்	-11.3453
ద్య	-11.3454
▁పల్లె	-11.3456
▁গঙ্গা	-11.346
ட்ரோ	-11.3461
ற்றி	-11.3462
▁మల	-11.3462
▁చారిత్రక	-11.3463
बाद	-11.3465
टिंग	-11.3465
ల్లు	-11.3466
▁శంకర	-11.3466
ச்சா	-11.3466
▁மையம்	-11.3468
▁জৈব	-11.3469
▁৩টি	-11.347
▁সমসাময়িক	-11.3471
▁உப்பு	-11.3471
▁फरवरी	-11.3471
ual	-11.3473
▁পোস্ট	-11.3474
▁গ্রেট	-11.3474
▁১৯৬১	-11.3476
▁১৯৪৫	-11.3477
▁सार	-11.348
▁वाघ	-11.3481
▁बाळ	-11.3482
▁কিশোর	-11.3482
vo	-11.3484
▁மரியா	-11.3484
▁বদলে	-11.3484
ক্রম	-11.3485
కుంట	-11.3485
▁ஆரம்பத்தில்	-11.3486
▁भाषेतील	-11.3486
▁கட்டட	-11.3487
নাল	-11.3488
त्ता	-11.3488
▁किशोर	-11.349
▁खोल	-11.3491
ொரு	-11.3492
▁हिस्से	-11.3492
▁दावा	-11.3493
মানের	-11.3493
▁அமைப்பின்	-11.3494
▁தண்டனை	-11.3495
৪৪	-11.3498
তির	-11.3499
▁আগ্রহ	-11.3499
▁प्रारम्भ	-11.35
సీఆర్‌డీఏ	-11.35
▁प्रामुख्याने	-11.35
▁প্রযোজনা	-11.35
ஜன்னிய	-11.35
▁தீவுகள்	-11.35
▁प्रतिक्रिया	-11.3501
▁माजी	-11.3502
র্ত	-11.3502
▁130	-11.3503
▁பாறை	-11.3503
▁சிறுவர்	-11.3503
▁நதி	-11.3505
▁কমনওয়েলথ	-11.3507
▁वडील	-11.3507
▁सतह	-11.3508
ins	-11.3511
శక్తి	-11.3511
▁लांब	-11.3512
இது	-11.3513
ிற்கான	-11.3513
▁நடை	-11.3513
আল	-11.3513
▁வாழ்	-11.3514
▁मस्जिद	-11.3514
▁আদম	-11.3516
▁लागते	-11.3516
புர	-11.3517
▁தனக்கு	-11.3519
▁२००३	-11.352
▁வார்	-11.3521
தின்	-11.3521
ద్ర	-11.3522
राज्य	-11.3522
বর্ণ	-11.3526
▁1922	-11.3526
डॉ	-11.3526
▁ডো	-11.3526
வளை	-11.3527
వచ్చ	-11.3528
▁পিটার	-11.3528
▁கிரா	-11.3528
▁நடத்தி	-11.3528
▁टिक	-11.3529
▁অনলাইন	-11.3529
▁जुड़े	-11.353
▁कार्यरत	-11.353
▁प्रथा	-11.3532
▁तत्त्वज्ञान	-11.3533
▁బై	-11.3533
ांतून	-11.3534
డుగు	-11.3534
▁অধি	-11.3535
▁బహు	-11.3535
▁భీమ	-11.3536
▁United	-11.3537
▁প্রমুখ	-11.3537
▁కాపాడ	-11.3538
चित	-11.354
▁தப்பி	-11.354
▁వేంకట	-11.3541
िला	-11.3542
▁বেদ	-11.3543
▁గుణ	-11.3543
▁கட்டிடக்கலை	-11.3544
▁বুঝতে	-11.3544
▁ইলেকট্রন	-11.3544
▁முழுமையான	-11.3545
▁నిర్ణయించ	-11.3545
▁पत्रकार	-11.3546
idae	-11.3546
▁ஒன்றியம்	-11.3547
▁कायम	-11.3548
▁ডাল	-11.355
▁স্তন্যপায়ী	-11.355
▁अधिकतर	-11.3551
▁महानगर	-11.3551
వైపు	-11.3553
▁సత్	-11.3553
▁600	-11.3555
▁అధ్యక్షుడు	-11.3556
ப்பது	-11.3558
একটি	-11.3558
▁বিরোধিতা	-11.3558
▁Dis	-11.3559
చిన	-11.3559
▁रोज	-11.3561
PA	-11.3561
హు	-11.3562
▁মিয়া	-11.3565
▁ஆனாலும்	-11.3566
▁सरकारने	-11.3566
▁चन्द्र	-11.3568
▁नाथ	-11.3568
ठे	-11.3569
▁వేసి	-11.357
▁सरल	-11.3571
▁சிறிது	-11.3572
▁सम्मिलित	-11.3572
▁গান্ধী	-11.3573
2%	-11.3574
▁निकल	-11.3575
▁নির্বাচনী	-11.3576
யாக்க	-11.3577
▁நரம்பு	-11.3578
▁বইটি	-11.3579
▁நிறை	-11.358
▁ప్రజలకు	-11.3581
▁மக்களை	-11.3584
▁கருநாடக	-11.3587
▁వెంటనే	-11.3589
सिंग	-11.359
इंग्लिश	-11.359
▁महायुद्ध	-11.3591
▁প্রশাসন	-11.3593
▁జీవన	-11.3594
▁ఇక	-11.3595
సారి	-11.3595
▁झु	-11.3596
▁கொண்டிருந்தது	-11.3597
▁புரிந்து	-11.3597
▁চলতে	-11.3598
▁पहुंच	-11.3598
▁ఛా	-11.3598
▁ஐரோப்பா	-11.3599
प्रकाश	-11.3601
▁పర్యాటక	-11.3601
che	-11.3604
্রু	-11.3604
▁நூலில்	-11.3604
▁দেশটির	-11.3606
▁মঞ্চ	-11.3607
ப்பெயர்	-11.3608
▁கோள	-11.3608
▁অনুষদ	-11.3609
▁বেতার	-11.3609
মূল	-11.361
ita	-11.361
▁आपली	-11.361
▁वस्त्र	-11.3611
we	-11.3612
এবং	-11.3613
▁நிலையான	-11.3614
గల్	-11.3615
▁ఫలితంగా	-11.3615
▁குறைக்க	-11.3615
▁Association	-11.3616
▁सोलापूर	-11.3616
னிக்	-11.3617
▁ক্রীড়াবিদ	-11.3617
▁సౌ	-11.3617
▁रोम	-11.362
వంత	-11.362
▁বইয়ের	-11.3621
एफ	-11.3621
▁एड	-11.3622
ভিল	-11.3623
▁87	-11.3623
▁మంద	-11.3624
▁अनुमति	-11.3624
▁கோப்பை	-11.3625
▁সোনা	-11.3625
▁পর্যায়ের	-11.3627
టె	-11.363
▁ஆர	-11.3631
▁ఆసక్తి	-11.3631
त्मक	-11.3632
एच	-11.3632
▁बाकी	-11.3634
డ్‌	-11.3634
▁வெளியேற்ற	-11.3635
▁বোঝা	-11.3636
▁ఉద్యమ	-11.3637
வற்ற	-11.3638
▁நெறிமுறை	-11.3638
▁இன்றும்	-11.3638
ிருப்ப	-11.3639
ियस	-11.3641
▁ஈழத்து	-11.3642
▁ఐరోపా	-11.3643
▁அரசன்	-11.3644
▁अभियांत्रिकी	-11.3646
▁చిత్రానికి	-11.3646
▁गोविंद	-11.3646
বস	-11.3646
▁இருப்பதால்	-11.3647
স্‌	-11.3647
▁ঘনত্ব	-11.3649
▁வெளியிடப்பட்ட	-11.3651
▁జట్టు	-11.3651
▁1918	-11.3652
▁কিছুদিন	-11.3652
▁1932	-11.3652
▁१९९०	-11.3653
▁పురుషులు	-11.3654
ங்க்	-11.3654
ீடு	-11.3655
▁স্পেনের	-11.3655
▁ভাস্কর্য	-11.3656
▁प्रवासी	-11.3659
▁मिलकर	-11.366
खंड	-11.366
▁प्रभावी	-11.3661
▁ఉష్ణోగ్రత	-11.3661
▁सिस्टम	-11.3661
▁தின	-11.3662
▁ஆண்கள்	-11.3663
▁பயிர்	-11.3665
▁ইঞ্জিনিয়ারিং	-11.3665
▁রীতি	-11.3665
▁ऱ्या	-11.3665
▁किरण	-11.3666
గుంట	-11.3666
▁এনে	-11.3668
▁4,	-11.3668
▁నృత్య	-11.3669
▁have	-11.3669
ভিন	-11.3669
्याचे	-11.3671
ేంద్ర	-11.3671
▁करण्यास	-11.3671
மேன்	-11.3671
▁పరమ	-11.3672
▁फ्रान्स	-11.3672
దేశం	-11.3673
▁all	-11.3674
▁প্রিয়	-11.3674
▁লিপি	-11.3675
▁র‍্যা	-11.3675
▁स्पर्धे	-11.3676
घा	-11.3677
▁Go	-11.3677
▁ডাকা	-11.3678
▁दर्ज	-11.3678
▁Books	-11.3679
▁उदा	-11.368
▁అర్ధ	-11.368
▁நே	-11.368
நீ	-11.368
త్తి	-11.3682
ord	-11.3683
▁मिळाली	-11.3683
்க	-11.3685
▁அறிவ	-11.3686
▁প্রেস	-11.3686
▁பென்	-11.3687
▁సంస్థలు	-11.3689
৯৪	-11.3689
দেরকে	-11.369
▁యోగ	-11.3693
▁প্রাচীনতম	-11.3694
▁నాకు	-11.3695
ায়িত	-11.3697
▁மார்ச்சு	-11.3697
▁তোলেন	-11.3697
▁पर्याप्त	-11.3697
▁గద్వాల	-11.3697
war	-11.3699
ళి	-11.37
▁மேடை	-11.3701
▁सुपर	-11.3701
▁संचार	-11.3703
ன்ற	-11.3704
▁খ্যাতি	-11.3707
▁সেখান	-11.3707
▁யூத	-11.3709
▁நேரங்களில்	-11.3709
▁கூகுள்	-11.3709
▁చేరి	-11.371
▁நடன	-11.371
▁গ্রহণের	-11.3711
ఖా	-11.3711
మర	-11.3711
सूर	-11.3717
▁শর্ত	-11.3718
▁খো	-11.3718
▁సరి	-11.3718
▁बावजूद	-11.372
▁উদ্ভূত	-11.372
▁ఏర్పడింది	-11.3721
▁রাজার	-11.3726
▁বুক	-11.3727
▁वेगवेगळ्या	-11.3727
▁1929	-11.3728
ிருந்தனர்	-11.3728
रम	-11.3728
▁আর্ট	-11.373
गढ	-11.3731
▁कू	-11.3731
▁আব	-11.3732
king	-11.3733
▁১৯৪৬	-11.3733
ग्रह	-11.3734
▁सिर्फ	-11.3734
▁বাতিল	-11.3735
लेट	-11.3735
gan	-11.3735
▁सुन	-11.3737
▁আসতে	-11.3737
▁Ni	-11.3737
▁साम	-11.3739
▁गोवा	-11.3739
▁বিদ্যালয়ে	-11.3741
ding	-11.3741
ிடமிருந்து	-11.3742
▁என்பவரால்	-11.3742
তন্ত্র	-11.3742
তল	-11.3743
▁அளவுக்கு	-11.3744
▁State	-11.3744
▁বেগ	-11.3748
▁হেনরি	-11.3749
ঝা	-11.375
▁శ్రీరాములు	-11.375
▁பெற்றவர்	-11.3752
ev	-11.3753
▁२००२	-11.3754
▁রাজবংশ	-11.3755
▁రసాయన	-11.3755
घात	-11.3755
२५	-11.3756
▁నిజాం	-11.3757
▁ఉన్నాడు	-11.3757
▁తిరు	-11.3757
▁পৃথিবীতে	-11.3758
▁రామారావు	-11.3758
তন	-11.3759
டில்	-11.3759
▁மாதத்தில்	-11.376
▁விண்மீன்	-11.3761
▁সমীকরণ	-11.3762
IC	-11.3763
▁ठार	-11.3763
▁இக்க	-11.3764
▁తగ్గ	-11.3764
▁টেনিস	-11.3764
▁मेरे	-11.3766
▁ரீதியாக	-11.3768
ाऱ्या	-11.3769
▁রানের	-11.377
্ন	-11.377
ிற்கும்	-11.3771
▁मेरी	-11.3771
▁తెర	-11.3771
▁শিলা	-11.3771
▁স্তরের	-11.3772
▁కామారెడ్డి	-11.3772
▁कैसे	-11.3773
▁పడి	-11.3774
क्र	-11.3776
MA	-11.3778
▁রয়্যাল	-11.3779
▁डोंगर	-11.3781
రాయి	-11.3782
▁టై	-11.3783
प्रति	-11.3783
▁এখনো	-11.3783
▁বাগ	-11.3784
▁(2)	-11.3785
ভাষী	-11.3786
▁কুরআন	-11.3786
ইস	-11.3786
▁விவசாய	-11.3787
▁ট্রফি	-11.3787
▁মেজর	-11.3787
▁ஏற்ப	-11.3787
ర్స్	-11.3787
▁संज्ञा	-11.3788
▁పంచాయతీకి	-11.3788
▁मोर	-11.3789
টল	-11.3789
▁ডিজাইন	-11.3789
▁Sch	-11.379
ষধ	-11.3791
▁सन्मान	-11.3791
▁మనసు	-11.3791
৯১	-11.3792
▁रत्न	-11.3793
▁अ‍ॅ	-11.3794
▁స్కూల్	-11.3794
షు	-11.3794
▁वैद्यकीय	-11.3794
க்கல	-11.3796
▁పొడి	-11.3798
विक	-11.38
▁வேளாண்மை	-11.38
▁பரப்ப	-11.3801
▁ஒன்பது	-11.3802
জ্ঞ	-11.3802
▁అవుతుంది	-11.3803
▁ஹே	-11.3803
▁धावा	-11.3804
▁மக்களவை	-11.3804
ভী	-11.3806
ষা	-11.3806
ல்கள்	-11.3806
▁Information	-11.3809
▁సిద్ధిపేట	-11.3809
चन	-11.3809
▁फूट	-11.3809
▁கிருஷ்ண	-11.3811
▁ప్రథమ	-11.3811
▁అయినా	-11.3812
▁याच्या	-11.3812
▁যথা	-11.3814
▁தசை	-11.3815
ांशी	-11.3815
▁विवरण	-11.3817
▁দর্শক	-11.3817
▁আবেদন	-11.3817
▁যশোর	-11.3819
▁किस	-11.3821
৩৪	-11.3821
▁no	-11.3822
ंसाठी	-11.3823
▁স্থির	-11.3824
▁రెండో	-11.3825
▁Qu	-11.3826
▁তরঙ্গ	-11.3832
▁సాధించింది	-11.3833
▁अंदर	-11.3833
డె	-11.3834
▁ব্রাজিল	-11.3836
ணக்கெடுப்பின்படி	-11.3836
2011	-11.3837
কম	-11.3838
▁समझा	-11.3838
▁अत्यधिक	-11.3839
▁पोहोच	-11.3839
▁থিয়েটার	-11.3839
▁সমিতি	-11.384
▁लिंग	-11.384
▁রাতে	-11.3841
கொள்ள	-11.3841
ంధ	-11.3844
ger	-11.3845
▁মিডিয়া	-11.3845
▁ख़ान	-11.3846
▁Library	-11.3846
▁सातारा	-11.3847
মালা	-11.3847
तर्फे	-11.385
৭৫	-11.385
▁பாலின	-11.3851
वेल	-11.3852
▁సుఖ	-11.3854
▁பண்பு	-11.3855
▁चाहते	-11.3855
वर्त	-11.3856
्ता	-11.3858
▁திருச்சி	-11.3859
▁அரசர்	-11.386
▁রোগের	-11.3861
▁ফিল্মফেয়ার	-11.3862
▁उंची	-11.3862
▁வங்காள	-11.3862
ction	-11.3862
▁संधि	-11.3864
▁இலக்கண	-11.3864
▁अंग्रेज़ी	-11.3866
las	-11.3867
నకు	-11.3868
▁প্রাথমিকভাবে	-11.3868
▁మతం	-11.3869
▁আয়াত	-11.3871
रत	-11.3871
▁উল	-11.3871
ীতে	-11.3871
▁பிழை	-11.3871
▁यामध्ये	-11.3872
▁கார	-11.3873
ख़	-11.3875
হিত	-11.3876
▁வெளியிட்டார்	-11.3877
ight	-11.3878
▁निवडून	-11.3879
▁நியமிக்கப்பட்ட	-11.3882
▁অগ্নি	-11.3883
▁ख़ुदा	-11.3885
▁படைத்த	-11.3886
▁நிகழ்	-11.3886
நாட்ட	-11.3887
▁নৌকা	-11.3887
ాక	-11.3888
▁মহ	-11.3888
वर्ष	-11.3889
▁கற்	-11.3889
८०	-11.389
▁నెల్లిమర్లలో	-11.389
▁प्रतिभा	-11.389
▁அறுவை	-11.3891
▁কর্	-11.3891
▁చెప్పాడు	-11.3892
▁একাডেমী	-11.3892
▁మళ్ళీ	-11.3892
सुद्धा	-11.3892
▁नावाचे	-11.3892
▁பாக	-11.3892
থু	-11.3892
 –	-11.3893
▁2014,	-11.3893
கட்ட	-11.3894
▁গ্রে	-11.3894
▁1934	-11.3895
ందా	-11.3895
▁মুসলমানদের	-11.3895
▁बॉ	-11.3896
▁মঠ	-11.3896
ট্রা	-11.3897
▁ఔ	-11.3897
app	-11.3897
▁গণিতবিদ	-11.3897
▁सीमित	-11.39
ীত	-11.3901
▁১৯৫৫	-11.3901
▁यामुळे	-11.3901
▁अपेक्षा	-11.3902
ंगल	-11.3902
▁অবদানের	-11.3903
▁অন্তর	-11.3903
▁92	-11.3904
ox	-11.3905
▁பாணி	-11.3907
▁प्रेस	-11.3907
▁భారీ	-11.3908
৩৫	-11.3908
▁దైవ	-11.3909
చ్చి	-11.391
युग	-11.391
▁உயிரின	-11.3911
▁Sri	-11.3913
8%	-11.3913
িজম	-11.3914
▁पर्व	-11.3914
▁কাটা	-11.3915
▁வேண்ட	-11.3916
ున్నాయి	-11.3917
मंडल	-11.3918
▁প্রচেষ্টা	-11.3918
▁তাল	-11.3919
▁खरीद	-11.392
▁నేర	-11.3921
▁தந்த	-11.3921
डू	-11.3922
▁அரபு	-11.3923
ஸ்டி	-11.3923
▁লাখ	-11.3924
▁রেখা	-11.3924
फल	-11.3924
▁म्हणजेच	-11.3926
▁अनंत	-11.3928
▁కనిపించ	-11.3929
लों	-11.3929
▁উন্নীত	-11.3929
▁दिसम्बर	-11.3929
▁হাদিস	-11.3929
▁উদ্ভাবন	-11.393
▁இங்கே	-11.393
வியா	-11.393
▁கலவை	-11.3931
▁तलाव	-11.3931
টক	-11.3933
▁जापान	-11.3934
▁రవి	-11.3934
বাংলা	-11.3934
▁கோவை	-11.3935
▁इतना	-11.3937
▁இயற்பியல்	-11.3938
পূর্বে	-11.3939
▁আল্লাহ	-11.3939
▁மகள்	-11.3939
▁మాటలు	-11.3939
রার	-11.394
air	-11.3943
গী	-11.3943
▁समर्पित	-11.3945
▁সামুদ্রিক	-11.3945
चंद्र	-11.3946
▁करण्याचा	-11.3946
▁গোল্ডেন	-11.3947
কিন	-11.3948
স্থল	-11.3949
ిగా	-11.3951
▁कोशिका	-11.3951
లని	-11.3952
▁படுகொலை	-11.3952
▁पराभव	-11.3952
ংস	-11.3954
▁கைப்பற்ற	-11.3954
िणी	-11.3955
▁हासिल	-11.3955
पुरा	-11.3957
▁కాంతి	-11.3958
লোক	-11.3958
▁మధ్యలో	-11.3958
▁రంగస్థల	-11.396
▁మామిడి	-11.396
प्त	-11.396
▁पाकिस्तानी	-11.3961
మంత	-11.3962
▁has	-11.3963
ித்த	-11.3964
▁காவல்	-11.3964
▁विद्रोह	-11.3965
ions	-11.3966
ராஜ	-11.3966
▁இதுவரை	-11.3972
▁ग्रे	-11.3974
பாளையம்	-11.3976
▁बेट	-11.3976
▁পরিবর্তনের	-11.3977
▁உருவான	-11.398
ాత్మక	-11.398
▁వసతి	-11.3983
बन	-11.3983
चार	-11.3985
पल	-11.3986
▁সৃষ্ট	-11.3987
▁పత్ర	-11.3988
डिया	-11.3988
ధు	-11.3989
▁खि	-11.3989
▁160	-11.399
▁தளபதி	-11.3992
▁घट	-11.3992
▁বুদ্ধ	-11.3993
▁अमेरिके	-11.3993
▁జిల్లాకు	-11.3994
▁மேற்கொள்ள	-11.3994
▁কল্যাণ	-11.3995
▁पाह	-11.3996
▁வன	-11.3998
▁డబ్బు	-11.3998
नार	-11.3998
▁చెందింది	-11.4
▁পোর্ট	-11.4
क्षण	-11.4001
▁পুনঃ	-11.4002
▁நடத்தை	-11.4002
▁चळवळी	-11.4003
ey	-11.4003
களினால்	-11.4004
▁ముఖ	-11.4005
▁నమ్మ	-11.4006
of	-11.4007
▁பிரதான	-11.4009
ాలయం	-11.4011
▁आशिया	-11.4013
ক্ষেত্র	-11.4015
அல்லது	-11.4015
▁அப்	-11.4016
ులలో	-11.4017
▁शहरे	-11.4017
▁आलेल्या	-11.4019
६५	-11.4019
▁ஆகவும்	-11.4019
▁ফেডারেশন	-11.4021
▁తమిళనాడు	-11.4021
▁जगत	-11.4024
ith	-11.4024
நூல்	-11.4024
பூர்	-11.4025
▁எக்ஸ்	-11.4025
▁వనపర్తి	-11.4025
▁ஆல்ப	-11.4026
तू	-11.4027
▁মূলতঃ	-11.4027
▁பல்ல	-11.4028
தன	-11.4028
ric	-11.4031
▁தேவி	-11.4031
▁ముఖ్యమంత్రి	-11.4032
ునికి	-11.4033
ప్పు	-11.4033
ডের	-11.4033
▁পেরে	-11.4035
code	-11.4035
▁டாக்டர்	-11.4036
चं	-11.4036
▁দ্বীপপুঞ্জ	-11.4036
▁गर्भ	-11.4038
▁শিশুদের	-11.404
ভারত	-11.4042
পন্থী	-11.4044
मैन	-11.4044
ఆంగ్లం	-11.4044
▁মতবাদ	-11.4045
▁প্রতিবেদন	-11.4047
▁সহযোগিতা	-11.4047
▁పలాస	-11.4047
▁தேட	-11.405
லிங்	-11.4051
▁பாய்	-11.4051
▁అకాడమీ	-11.4051
▁உயிர	-11.4054
▁సింగ్	-11.4055
▁పరిచయం	-11.4056
▁அவர்களை	-11.4057
▁१९८०	-11.4059
▁நிகழ்வுகள்	-11.406
▁చట్ట	-11.406
▁லூ	-11.4062
▁গণনা	-11.4062
▁त्यावर	-11.4065
▁विवाद	-11.4065
▁(1)	-11.4066
োপ	-11.4067
▁पद्धति	-11.4067
▁দিয়েছিল	-11.4068
▁তিব্বতী	-11.407
▁For	-11.407
▁বাজারে	-11.407
▁முதன்மையான	-11.4071
▁রাশিয়ার	-11.4071
▁அமைய	-11.4072
▁পরিচালনার	-11.4073
▁१९९८	-11.4074
▁comp	-11.4074
▁क्षेत्रफळ	-11.4075
▁இப்படி	-11.4077
▁ஆங்கிலம்	-11.4077
▁கட்டுமான	-11.4077
▁విష్ణు	-11.4078
▁కొట్ట	-11.4078
▁எச்	-11.4079
▁बैठक	-11.4079
ிருக்கின்றன	-11.408
▁దిన	-11.4082
▁বিদ্যা	-11.4082
▁వంట	-11.4085
▁মধ্যেই	-11.4087
▁மிகக்	-11.4087
▁অর্থে	-11.409
-10	-11.4091
▁இயற்றிய	-11.4091
பாட்ட	-11.4092
துடன்	-11.4093
শার	-11.4096
▁தற்கால	-11.4096
వపేజీ	-11.4097
▁অ্যাসোসিয়েশন	-11.4097
▁కల్పించ	-11.4098
▁పట్టు	-11.4098
▁उनको	-11.4099
▁கலி	-11.4099
இந்த	-11.41
யிடம்	-11.4101
▁বিষ্ণু	-11.4103
▁కోరిక	-11.4104
▁மரண	-11.4104
▁இன்னொரு	-11.4105
200	-11.4106
ஸ்ட	-11.4106
▁জারি	-11.4107
▁অস	-11.4108
पाद	-11.411
७०	-11.4111
టూ	-11.4114
▁শিয়া	-11.4115
▁समृद्ध	-11.4115
▁অবশ্যই	-11.4115
गांव	-11.4116
▁যেগুলো	-11.4116
লক	-11.4116
ंपैकी	-11.4118
ফ্ল	-11.4119
मिक	-11.412
▁खाजगी	-11.4121
▁बंगाली	-11.4121
लेख	-11.4122
01.	-11.4123
▁கொடுத்து	-11.4123
sha	-11.4124
ாறு	-11.4124
हिंदी	-11.4125
▁தேச	-11.4127
▁sp	-11.4127
▁গবেষণায়	-11.4127
▁हूँ	-11.4129
▁మద్దతు	-11.4129
▁பேரரச	-11.413
▁ফাইল	-11.4132
▁2015,	-11.4133
▁As	-11.4133
▁কংগ্রেসের	-11.4133
লির	-11.4134
ura	-11.4135
▁মন্তব্য	-11.4136
க்கூட	-11.4138
▁குடும்பம்	-11.414
விர	-11.414
▁எழுத்த	-11.414
▁ஆடை	-11.4141
ड्र	-11.4141
que	-11.4142
▁முறையை	-11.4143
▁1921	-11.4144
ेच्या	-11.4144
ल्फ	-11.4146
িটি	-11.4146
▁বরফ	-11.4147
▁कोरिया	-11.4148
श्च	-11.4149
▁জোড়া	-11.4149
▁আরেক	-11.4151
▁అందించ	-11.4151
▁செருமானிய	-11.4152
ారా	-11.4153
ண்டை	-11.4154
▁লাভের	-11.4155
ाब	-11.4157
▁सादर	-11.4157
▁হামলা	-11.4157
▁గత	-11.4162
▁మట్టి	-11.4162
ண்டோ	-11.4166
▁இரண்டும்	-11.4168
ডু	-11.4169
చంద్ర	-11.4169
▁இரும்பு	-11.4171
▁மருத்துவமனை	-11.4171
▁जमिनी	-11.4172
▁కొల	-11.4173
▁ప్రియ	-11.4174
▁ఎంపిక	-11.4174
▁అంగీకరించ	-11.4175
▁వేడి	-11.4175
▁बुद्धि	-11.4176
▁பிரான்சு	-11.4177
ந்தது	-11.4177
সেল	-11.418
▁సుబ్బారావు	-11.418
▁পুরস্কারের	-11.4181
స్థాన	-11.4181
▁ఒప్పందం	-11.4183
ாவ	-11.4183
▁বিজ্ঞাপন	-11.4183
▁जिनका	-11.4184
ினான்	-11.4185
▁लागला	-11.4186
বাহ	-11.4186
▁போட்டிகள்	-11.4187
▁1933	-11.4188
▁செங்க	-11.4189
▁হাসপাতালে	-11.4189
▁जैव	-11.4191
▁পুনর্	-11.4191
ib	-11.4192
▁నటించారు	-11.4192
লেস	-11.4192
▁अन्त	-11.4192
▁দায়ী	-11.4193
জাতীয়	-11.4196
▁প্রদর্শনী	-11.4197
▁இப்பகுதி	-11.4197
ওয়েল	-11.4197
ाली	-11.4198
▁কৃত্রিম	-11.4198
▁జానపద	-11.4198
▁ত্রিপুরা	-11.4198
▁উপরের	-11.4198
▁प्रकरण	-11.42
▁பொறுப்பு	-11.4202
▁परिचय	-11.4206
వేశ	-11.4206
▁लगातार	-11.4206
▁நாள	-11.4208
▁இயக்குனர்	-11.421
▁கொண்டுள்ள	-11.421
▁கருவிகள்	-11.4211
tain	-11.4211
▁नायक	-11.4211
पती	-11.4211
ii	-11.4212
பல்	-11.4213
▁சாத்திய	-11.4213
▁గంగరాజు	-11.4214
col	-11.4218
వలసి	-11.422
టింగ్	-11.4221
ধারা	-11.4221
▁কমান্ডার	-11.4221
▁భావిస్తున్నారు	-11.4222
▁1919	-11.4223
sk	-11.4224
▁स्त्रिया	-11.4225
▁जाणाऱ्या	-11.4228
▁Cambridge	-11.4228
ind	-11.4229
▁உயிரிழந்தனர்	-11.423
▁सत	-11.423
Al	-11.4231
▁మార్గం	-11.4231
▁రాష్ట్రంలో	-11.4231
▁গোত্র	-11.4232
▁वसंत	-11.4233
▁सदस्यों	-11.4234
शिवाय	-11.4234
▁ஆள	-11.4235
▁உண்மையில்	-11.4235
উড	-11.4237
▁மென்	-11.4237
▁கட	-11.4237
▁ప్రణాళిక	-11.4237
▁कराया	-11.4238
হাট	-11.4239
▁वयाच्या	-11.4239
्व	-11.424
nes	-11.4242
▁కుటుంబం	-11.4244
▁अणु	-11.4245
▁উজ্জ্বল	-11.4245
▁গ্রামীণ	-11.4245
▁মুক্তিপ্রাপ্ত	-11.4246
▁செய்வது	-11.4246
▁தோல்வி	-11.4246
ঠা	-11.4246
▁প্রতিদিন	-11.4248
ct	-11.425
ack	-11.4252
▁বাঁধ	-11.4252
ుడికి	-11.4252
▁ধরন	-11.4253
▁David	-11.4253
▁प्रखण्ड	-11.4253
▁হাম	-11.4255
ावली	-11.4255
ంలోని	-11.4259
▁మించి	-11.426
▁ভিয়েতনাম	-11.426
▁this	-11.4261
▁छह	-11.4261
▁వివరాలు	-11.4261
▁வம்ச	-11.4262
ల్ని	-11.4264
▁করায়	-11.4264
▁இடைவெளி	-11.4265
कन	-11.4266
▁लेखिका	-11.4266
▁పాఠశాలలో	-11.4269
▁উর্দু	-11.4269
▁মিশরীয়	-11.4269
கொண்டு	-11.427
▁তালিকাভুক্ত	-11.427
రాలు	-11.4272
लाई	-11.4273
తెలుగు	-11.4274
মাই	-11.4276
▁সায়েন্স	-11.4276
▁அனைத்துலக	-11.4277
க்ட்	-11.4277
▁नद्या	-11.4277
ீஸ்	-11.4278
बाल	-11.4279
▁নিউজিল্যান্ডের	-11.4281
▁వైద్యులు	-11.4281
▁வந்தனர்	-11.4282
▁অনেকগুলো	-11.4283
▁लढाई	-11.4284
▁ஆயினும்	-11.4284
ப்பட்டனர்	-11.4284
▁பிரே	-11.4284
▁आल्या	-11.4284
గానూ	-11.4285
நேர	-11.4288
uc	-11.4288
▁மேல	-11.4288
▁అమరావతి	-11.4292
▁নির্মাতা	-11.4292
गुण	-11.4292
▁சான்	-11.4293
▁காலங்களில்	-11.4295
▁ரயில்	-11.4295
गृह	-11.4297
ருக்கும்	-11.4298
▁क्ल	-11.4299
▁দাগ	-11.4299
▁জনগণ	-11.4301
▁தளம்	-11.4303
▁தொடரில்	-11.4304
▁வாழ்ந்து	-11.4304
▁আধ্যাত্মিক	-11.4305
▁அவரின்	-11.4306
▁పంచాయతీ	-11.4306
টিং	-11.4309
களிடையே	-11.431
রেন	-11.4311
৬৬	-11.4312
त्री	-11.4313
▁விளக்கம்	-11.4314
▁औषध	-11.4315
▁आध्यात्मिक	-11.4315
▁বিষয়বস্তু	-11.4316
▁शिकार	-11.4316
▁நீதிமன்ற	-11.4318
▁হিল	-11.4318
▁ঘরে	-11.4319
▁বিকল্প	-11.4319
পুরুষ	-11.4319
▁প্রা	-11.432
▁தீவிர	-11.432
▁”	-11.432
▁पठार	-11.4321
▁देशातील	-11.4321
▁থাকলে	-11.4322
কিং	-11.4322
▁மைல்	-11.4322
▁శ్రీకాకుళంలో	-11.4322
▁বেঁচে	-11.4323
ல்ல	-11.4324
▁রোম	-11.4324
▁i	-11.4324
ষি	-11.4326
▁జూ	-11.4327
பெற்ற	-11.433
▁పూర్వం	-11.4331
மதி	-11.4331
▁सॉफ्टवेयर	-11.4331
▁ঘিরে	-11.4331
ముఖ	-11.4334
▁வருடம்	-11.4334
▁आदी	-11.4338
▁படைப்பு	-11.4338
▁আন্তর্জাতিকে	-11.4338
ম্বা	-11.4339
पुणे	-11.4339
▁असल्यामुळे	-11.4339
▁বিপুল	-11.434
▁दुर्गा	-11.434
▁अंतर्	-11.434
De	-11.4341
बोध	-11.4344
▁যৌগ	-11.4344
▁அலி	-11.4345
▁వంటివి	-11.4345
▁94	-11.4348
▁அறிவித்தது	-11.4348
▁टाटा	-11.4349
▁সোসাইটির	-11.435
▁பகுதிகளை	-11.4352
ेक	-11.4353
▁गणना	-11.4354
▁जनगणना	-11.4355
▁মিউজিক	-11.4355
▁मृत	-11.4355
▁प्रायः	-11.4356
▁గ్రా	-11.4357
টাই	-11.4357
মণ্ডল	-11.4357
्न	-11.4359
▁పేర్లు	-11.4359
▁డే	-11.4361
▁सतत	-11.4362
▁செய்தனர்	-11.4362
▁सितंबर	-11.4363
▁వైభవంగా	-11.4364
▁சீர	-11.4364
▁Vi	-11.4365
▁இந்தியக்	-11.4366
▁৭৫	-11.4367
▁நெடு	-11.4369
▁নারীর	-11.437
name	-11.4372
▁তোলা	-11.4372
க்கால	-11.4372
so	-11.4373
▁జు	-11.4373
குறி	-11.4374
▁आये	-11.4376
▁विषयों	-11.4376
▁Ph	-11.4377
య్	-11.4378
▁সার্ভিস	-11.4378
▁అందుకు	-11.4379
▁आढळतात	-11.4379
কট	-11.438
▁அனைவரும்	-11.438
டுகள்	-11.4386
హెక్టార్లలో	-11.4386
▁नैसर्गिक	-11.4387
▁सम्मेलन	-11.4387
గర	-11.4387
৪৭	-11.4387
ुल	-11.4388
▁வாக்குகள்	-11.4389
▁బెల్లంపల్లి	-11.4389
az	-11.4389
▁భావించ	-11.4391
ব্যবস্থা	-11.4393
▁అసలు	-11.4393
▁सर्वेक्षण	-11.4394
▁రేడియో	-11.4395
ুদ্দিন	-11.4395
▁মানে	-11.4395
▁मिलियन	-11.4396
▁ఆలోచన	-11.4396
als	-11.4396
▁நடிகர்கள்	-11.4398
লান	-11.4399
▁রয়েছেন	-11.4399
▁জয়ী	-11.44
ze	-11.44
▁ఇంద్ర	-11.4402
ফের	-11.4404
ள்ளி	-11.4404
▁নন	-11.4405
▁வழியில்	-11.4405
▁দ্বীপের	-11.4406
▁अहमदनगर	-11.4408
▁చేర్చ	-11.4408
▁উইল	-11.4409
▁ফসল	-11.441
▁इंद्र	-11.441
▁అభ్యర్థి	-11.441
mar	-11.4411
▁గె	-11.4413
▁নিজে	-11.4413
▁খাওয়া	-11.4415
▁1917	-11.4416
▁বিধান	-11.4417
▁ஜார்ஜ்	-11.4418
▁सहकारी	-11.4419
▁விளங்குகிறது	-11.4419
▁இவ்வகை	-11.4419
▁স্তরে	-11.442
▁বাক্য	-11.4423
শত	-11.4424
কাম	-11.4424
▁वेब	-11.4425
▁শতক	-11.4425
▁ఆఫ్రికా	-11.4425
▁రస	-11.4425
▁৫৩	-11.4427
▁मिश्रण	-11.4427
▁नाना	-11.4429
ங்களுக்கும்	-11.4431
▁జ్ఞాన	-11.4439
SA	-11.4439
▁तिने	-11.4442
▁సూర్యాపేట	-11.4442
▁অলিম্পিকের	-11.4443
▁பணம்	-11.4444
▁కలసి	-11.4445
▁పుస్తకం	-11.4445
▁চায়	-11.4446
ஃபா	-11.4449
বছর	-11.4449
▁একুশে	-11.445
▁కంప్యూటర్	-11.445
▁मुलगा	-11.4451
▁தொடு	-11.4451
েন্স	-11.4452
▁वृत्तपत्र	-11.4452
▁वेग	-11.4452
▁प्रकारचे	-11.4453
ேற்ற	-11.4455
கொள்	-11.4456
▁1928	-11.4456
▁வருகை	-11.4457
லூ	-11.4457
▁उद	-11.4457
▁लखनऊ	-11.4458
▁स्टेडियम	-11.4458
त्रा	-11.4459
▁দেহের	-11.4459
▁প্রকাশের	-11.4459
ంటుంది	-11.4459
াদ	-11.4459
భావ	-11.4461
▁राजनीति	-11.4462
ப்பெற்ற	-11.4462
డంలో	-11.4463
▁यासाठी	-11.4463
▁வேறுபாடு	-11.4464
স্থা	-11.4464
லியா	-11.4466
▁ఉప్పు	-11.4466
ல்ட்	-11.4467
▁கூறுகிறது	-11.4468
রান	-11.4468
▁बह	-11.4468
షీ	-11.4471
▁உதவும்	-11.4471
▁విగ్రహ	-11.4472
মস	-11.4474
ణం	-11.4474
▁আবদুল্লাহ	-11.4474
▁इंजन	-11.4476
▁জ্যাক	-11.4476
িদ	-11.4476
▁இலை	-11.4477
▁আলোর	-11.4477
यह	-11.4477
দেশ	-11.4477
▁अज	-11.4477
▁মিশন	-11.4478
▁दिसून	-11.4478
▁দুর্বল	-11.4481
▁அம்மன்	-11.4482
▁चु	-11.4483
த்துவ	-11.4484
సై	-11.4485
▁ஊரில்	-11.4485
▁எசுப்பானிய	-11.4485
োল	-11.4488
ফো	-11.4489
▁অংশগ্রহণকারী	-11.449
▁ক্রিকেটের	-11.4491
हन	-11.4491
ల్లి	-11.4491
রেট	-11.4492
▁சிற்ற	-11.4494
▁கையாள	-11.4495
▁அலுவலக	-11.4497
ध्या	-11.4497
▁అమలు	-11.4498
▁পুরাতন	-11.4498
জিন	-11.4498
▁मॅ	-11.4499
बळ	-11.4499
জনক	-11.4501
तार	-11.4501
னுடன்	-11.4501
▁पाड	-11.4502
▁స్వర	-11.4502
val	-11.4504
స్టర్	-11.4505
▁गि	-11.4505
▁युनायटेड	-11.4506
▁বৈদ্যুতিক	-11.4506
▁তুলনা	-11.4508
▁দাম	-11.4509
्मा	-11.4511
cer	-11.4511
িয়াল	-11.4511
▁இள	-11.4512
▁పేజీ	-11.4515
▁অক্ষর	-11.4515
చర్	-11.4516
৪৩	-11.4517
ন্ডি	-11.4518
▁अभाव	-11.4518
పడి	-11.4521
▁தக்க	-11.4521
யில	-11.4522
▁సాగు	-11.4522
▁வருகின்றனர்	-11.4522
▁श्रीकृष्ण	-11.4524
সম্পন্ন	-11.4524
▁ஆலயம்	-11.4524
▁প্রণয়ন	-11.4525
శాఖ	-11.4525
రస	-11.4526
যে	-11.4527
▁கிலோமீட்டர்	-11.4527
▁மொழிகள்	-11.4528
▁చట్టం	-11.4529
▁information	-11.453
▁वाह	-11.453
▁పరిస్థితి	-11.453
▁सुन्दर	-11.4531
▁1914	-11.4535
மங்கலம்	-11.4536
▁வரையறுக்க	-11.4538
গল	-11.4538
▁विरोधी	-11.4539
हिर	-11.454
St	-11.454
▁ধাতু	-11.4541
वाय	-11.4542
्सन	-11.4544
▁গানটি	-11.4546
▁ওষুধ	-11.4546
▁హాస్య	-11.4547
era	-11.4547
ाळ	-11.4547
▁অভিনীত	-11.4547
▁শাসনের	-11.4548
▁এ্যা	-11.455
గ్రామానికి	-11.455
▁శాసన	-11.4551
ानु	-11.4551
త్రి	-11.4552
▁১৯৪৯	-11.4552
ெடுக்க	-11.4553
ణీ	-11.4553
विषयी	-11.4554
▁जलवायु	-11.4554
▁अभयारण्य	-11.4554
ाँ	-11.4555
గూడ	-11.4556
▁উপমহাদেশের	-11.4556
▁కార్య	-11.4557
▁শাসনামলে	-11.4557
▁எதிரி	-11.4558
▁প্রদানের	-11.4558
పోయిన	-11.4558
▁தெளிவாக	-11.4559
fer	-11.4559
ோட்ட	-11.4561
▁गज	-11.4562
▁ప్రైవేట్	-11.4562
▁Pe	-11.4564
ोबा	-11.4564
स्वामी	-11.4564
▁உட்பட்ட	-11.4565
खी	-11.4565
▁இதர	-11.4565
▁बोर	-11.4568
▁மருத்துவர்	-11.4569
▁দাখিল	-11.4571
▁संचालन	-11.4571
▁செய்கிறது	-11.4571
ార్థ	-11.4572
▁வலிமை	-11.4572
▁உள	-11.4573
ans	-11.4574
वर्ग	-11.4574
▁போக	-11.4575
▁செய்யப்பட்டு	-11.4576
▁तमिळ	-11.4577
▁পর্যায়	-11.4577
▁கடல	-11.4578
▁ফাংশন	-11.4579
▁रिपोर्ट	-11.4579
▁సార	-11.458
రాజ్	-11.458
டிஸ்	-11.458
▁நகரை	-11.458
▁प्रिय	-11.4584
▁ব্যবহারকারী	-11.4584
▁উপযোগী	-11.4587
▁आवृत्ती	-11.4588
▁తీర్చ	-11.4588
▁இயங்கும்	-11.4588
▁ট্রে	-11.459
▁आपला	-11.459
▁रवि	-11.4592
▁মঙ্গল	-11.4592
బే	-11.4593
▁Her	-11.4593
वृत्त	-11.4593
నగర్	-11.4594
▁கண்ணாடி	-11.4594
▁খেতাব	-11.4595
▁मास	-11.4596
वाड	-11.4599
▁பாவ	-11.46
▁పిల్ల	-11.46
▁সবাই	-11.4601
▁போற்ற	-11.4601
▁साय	-11.4601
▁దూర	-11.4601
▁ఎక్కడ	-11.4601
▁தமிழ்நாட்டின்	-11.4603
▁புர	-11.4604
▁झालेली	-11.4605
্ল	-11.4605
▁தொகுதியில்	-11.4605
ाखाली	-11.4605
▁1924	-11.4605
ியின்	-11.4606
▁లోక	-11.4607
▁சக்கர	-11.4608
▁ভাইরাস	-11.4609
▁పంటలు	-11.461
▁लिमिटेड	-11.4611
▁also	-11.4611
▁व्यक्तिगत	-11.4612
▁সিরিজে	-11.4613
রেখা	-11.4613
▁क्षेत्रफल	-11.4613
▁கதாபாத்திர	-11.4613
▁అప	-11.4614
▁ठर	-11.4614
▁மருத்துவம்	-11.4615
  	-11.4615
ল্লি	-11.4616
▁काली	-11.4616
▁(16	-11.4617
▁কিংবদন্তি	-11.4619
▁हॉटेल	-11.4619
बरोबर	-11.462
▁माप	-11.4621
▁எதுவும்	-11.4621
এটি	-11.4621
▁సాధించాడు	-11.4622
▁সম্পাদনা	-11.4623
▁name	-11.4624
▁যাত্রী	-11.4624
▁गीता	-11.4624
▁৩৬	-11.4625
▁जेल	-11.4626
▁লামা	-11.4627
বেশ	-11.4627
▁நான்காவது	-11.4627
▁தொடக்கத்தில்	-11.4627
▁प्रसंग	-11.4628
▁রসায়ন	-11.4632
▁En	-11.4634
িজ	-11.4635
▁உலகளாவிய	-11.4635
▁সম্মুখীন	-11.4635
▁டேவிட்	-11.4637
:#	-11.4637
ध्य	-11.4639
विध	-11.464
▁১৯৫৭	-11.4641
▁পত্র	-11.4642
▁बिल	-11.4643
▁पाहिजे	-11.4643
▁গাণিতিক	-11.4643
▁నిర్వహించెదరు	-11.4644
▁கட்டளை	-11.4645
▁వాటిలో	-11.4646
cy	-11.4646
▁శ్రీకాకుళంలోనూ	-11.4647
▁அமைச்சர்	-11.4651
▁৪টি	-11.4651
▁कुलकर्णी	-11.4652
▁কার্যালয়	-11.4652
వేయ	-11.4653
খ্রিস্টপূর্বাব্দ	-11.4653
▁সমাজে	-11.4653
by	-11.4654
▁ব্যবসায়	-11.4654
সংখ্যা	-11.4655
aw	-11.4655
▁বাংলাদেশি	-11.4656
কিউ	-11.4656
▁নল	-11.4657
▁మూర్తి	-11.4658
▁नही	-11.4659
▁চক্র	-11.4659
▁পুরুষের	-11.4659
▁प्रार्थना	-11.466
▁गौतम	-11.466
சில	-11.466
▁ஈடுபட	-11.466
▁one	-11.4662
▁कान	-11.4663
▁),	-11.4665
ైనా	-11.4666
▁121	-11.4666
▁উদ্যোগ	-11.4668
▁नुकसान	-11.4668
▁রপ্তানি	-11.4668
ోప	-11.4669
▁கிமு	-11.467
৩৯	-11.467
প্রথম	-11.4671
log	-11.4671
▁சற்று	-11.4672
▁अं	-11.4672
oph	-11.4672
▁गरज	-11.4673
▁முக்கோண	-11.4673
▁ఉండగా	-11.4673
▁द्रव	-11.4675
▁मू	-11.4675
▁தன்ன	-11.4675
जु	-11.4675
▁தொலைபேசி	-11.4676
▁వ్రాయ	-11.4677
▁लिखित	-11.4677
▁মহকুমা	-11.4679
▁दिखा	-11.4679
▁व्यक्तियों	-11.468
▁উপায়	-11.4681
▁নদীতে	-11.4683
▁হিসেবেও	-11.4683
▁হোম	-11.4684
▁எழு	-11.4684
గె	-11.4685
▁গেমস	-11.4686
AC	-11.4688
▁Ge	-11.4688
ফু	-11.4689
▁సూచించ	-11.4689
తూ	-11.4691
ुद्दीन	-11.4692
कै	-11.4692
▁चौधरी	-11.4692
▁கடுமையான	-11.4692
▁పనిచేశాడు	-11.4692
▁অ্যাওয়ার্ড	-11.4693
वो	-11.4697
▁1900	-11.4698
▁দশম	-11.4699
▁దివ్య	-11.4699
▁जाहीर	-11.4701
nic	-11.4702
জির	-11.4704
छा	-11.4705
▁জোট	-11.4706
▁லீக்	-11.4706
▁यशस्वी	-11.4706
▁চিঠি	-11.4707
▁முடிவுக்கு	-11.4707
▁வின்	-11.4708
▁সংজ্ঞায়িত	-11.4709
▁శాస్త్రీయ	-11.4709
▁মধু	-11.471
CH	-11.4711
▁ऑफिस	-11.4711
▁সংকলন	-11.4713
▁అమ్మవారి	-11.4714
মায়	-11.4715
▁అమ్మాయి	-11.4715
▁ఛ	-11.4715
▁যুক্তরাজ্যের	-11.4716
▁సూక్ష్మ	-11.4717
▁लंडन	-11.4717
தள	-11.4718
▁முன்னேற்ற	-11.4718
▁Art	-11.4719
क्ट	-11.4719
▁ma	-11.4719
▁முட்டை	-11.472
▁சிவப்பு	-11.4721
▁பசு	-11.4722
ঞ্জি	-11.4722
▁அதிகரிக்க	-11.4722
▁వివాహ	-11.4723
▁চৌ	-11.4724
▁আল্লাহর	-11.4724
▁புரத	-11.4724
▁तरुण	-11.4725
▁পত্রিকার	-11.4726
▁चंद	-11.4726
▁మధుర	-11.4726
▁হাউস	-11.4727
▁செய்திகள்	-11.4727
▁பொருளை	-11.4727
▁నాయకులు	-11.4729
खान	-11.4732
▁नवी	-11.4732
▁William	-11.4733
▁२०१८	-11.4734
▁১৯৫৯	-11.4735
▁పెట్టి	-11.4735
▁ఉదయం	-11.4735
▁हरी	-11.4736
▁সাতটি	-11.4736
सोबत	-11.4738
ama	-11.4739
▁வரையில்	-11.474
▁సోవియట్	-11.4741
▁ఆధ్వర్యంలో	-11.4742
▁জেন	-11.4743
▁पुराना	-11.4743
▁जोर	-11.4744
7%	-11.4746
▁వ్యక్తులు	-11.4747
ப்பள்ளி	-11.4748
▁பார	-11.4749
▁যাইহোক	-11.475
பரி	-11.4751
▁மண்ண	-11.4751
వేత్త	-11.4752
లొ	-11.4754
▁মল	-11.4754
ाबाई	-11.4754
IN	-11.4755
▁তিব্বতের	-11.4756
మెంట్	-11.4756
▁গিয়েছে	-11.4756
▁సంకలనం	-11.4757
▁खनिज	-11.4758
▁मोहम्मद	-11.4758
▁அளவ	-11.4758
▁असणाऱ्या	-11.4759
▁వీరికి	-11.476
তারা	-11.4761
▁மிகை	-11.4762
▁பொன்	-11.4762
▁முருக	-11.4763
▁इमारत	-11.4764
▁சொற்கள்	-11.4765
▁शेर	-11.4765
▁চার্চ	-11.4765
▁সংগঠিত	-11.4766
▁ஜேம்ஸ்	-11.4766
ంట్	-11.477
▁সেক্টর	-11.477
▁மஞ்சள்	-11.4771
৫১	-11.4771
▁শূন্য	-11.4772
▁చల్ల	-11.4772
▁Da	-11.4773
वर्ती	-11.4774
▁Br	-11.4774
▁हमेशा	-11.4774
▁মুখোমুখি	-11.4774
▁కనిపిస్తుంది	-11.4775
▁উপজাতি	-11.4775
▁தலைப்பு	-11.4775
▁వాళ్ళ	-11.4775
▁घे	-11.4776
▁নির্বাচনের	-11.4777
▁Air	-11.4778
▁वापरले	-11.4781
▁প্রশান্ত	-11.4781
ট্র	-11.4781
▁విన	-11.4782
▁గ్రంథ	-11.4782
▁मला	-11.4782
हरा	-11.4782
▁தங்களது	-11.4783
▁तहसील	-11.4783
▁नै	-11.4783
নস	-11.4783
▁se	-11.4788
▁लै	-11.4788
पात	-11.4788
బొ	-11.479
▁లోక్‌సభ	-11.4791
▁ইউএস	-11.4791
▁ஏற்றுக்	-11.4792
लेखन	-11.4793
▁অভাব	-11.4793
▁அகற்ற	-11.4794
१३	-11.4794
▁శుద్ధ	-11.4795
▁సింగ	-11.4797
▁क्षेत्रात	-11.4797
ক্রি	-11.4798
▁লেখার	-11.4798
▁పులి	-11.4799
▁ঝুঁকি	-11.4799
▁Ga	-11.4799
▁मं	-11.4799
ராஜன்	-11.48
ாகப்	-11.4801
▁அறிந்து	-11.4801
न्य	-11.4801
▁ইট	-11.4802
▁किल्ल्या	-11.4804
▁হযরত	-11.4807
▁उत्पत्ति	-11.4808
▁பார்த்து	-11.4809
▁ఇప్పటికీ	-11.4809
▁इकाई	-11.4809
▁అస	-11.481
▁కావ	-11.4811
சென்	-11.4811
▁तंत्रज्ञान	-11.4811
▁ఉండటం	-11.4813
▁दीर्घ	-11.4813
▁Tamil	-11.4813
▁ஓட்டங்கள்	-11.4815
▁লর্ড	-11.4815
▁निवेश	-11.4816
கலை	-11.4817
▁रथ	-11.4817
▁অর্ধেক	-11.4818
▁लागत	-11.4818
ிசை	-11.4819
ణా	-11.4823
▁পার্বত্য	-11.4824
▁பட்டியலில்	-11.4825
▁ஆப்பிரிக்க	-11.4825
▁शतकात	-11.4828
▁தை	-11.4828
ঙ্গু	-11.4828
िले	-11.4829
▁క్రైస్తవ	-11.483
▁ক্যাপ্টেন	-11.4832
▁दिसते	-11.4834
ring	-11.4835
्ज़	-11.4837
▁వలె	-11.4837
শাসিত	-11.4838
▁सिंग	-11.4839
రించ	-11.484
▁కమిటీ	-11.4841
র্জ	-11.4844
জীবন	-11.4845
▁पथ	-11.4845
▁வேக	-11.4845
▁মার্ক	-11.4846
பது	-11.4848
तंत्र	-11.4848
▁আয়োজিত	-11.4849
నొ	-11.485
▁নামানুসারে	-11.485
▁लागली	-11.4851
ராம	-11.4851
▁இணைக்கப்பட்ட	-11.4853
पान	-11.4854
ons	-11.4856
▁கேட்ட	-11.4856
▁ప్రదేశం	-11.4859
▁मान्य	-11.4862
▁எழுப்ப	-11.4862
▁సంగారెడ్డిలోను	-11.4863
▁అంతా	-11.4863
నాయుడు	-11.4864
▁நூலை	-11.4865
▁अच्छे	-11.4866
▁पंचायत	-11.4866
▁कदम	-11.4866
বিশেষ	-11.4868
▁அந்தக்	-11.4868
▁ইরান	-11.4868
▁சிறப்பான	-11.4868
▁অষ্টম	-11.487
▁সম্পত্তি	-11.487
▁கணக்க	-11.4871
▁कमल	-11.4871
వరకు	-11.4871
ంగు	-11.4872
తెలంగాణ	-11.4872
ధర్మ	-11.4872
▁वगैरे	-11.4874
▁टू	-11.4874
భి	-11.4875
▁பெற்றோர்	-11.4876
▁লস	-11.4876
▁history	-11.4878
▁பிள	-11.4878
▁సుశీల	-11.4882
▁பெயர்கள்	-11.4883
▁প্রতিযোগী	-11.4884
▁वस्तुओं	-11.4884
াপ	-11.4885
▁প্রকৌশলী	-11.4886
▁జై	-11.4886
▁செய்தல்	-11.4887
▁পশ্চিমা	-11.4887
▁অধ্যায়	-11.4888
▁గాను	-11.4889
serv	-11.4889
▁বিষয়ের	-11.4889
▁অবধি	-11.4892
▁লাতিন	-11.4893
▁বর্ণের	-11.4894
▁সরল	-11.4895
▁সভ্যতার	-11.4895
bar	-11.4896
▁ஆய்	-11.4896
মোহন	-11.4897
▁পৃষ্ঠ	-11.4897
▁ব্যক্তিদের	-11.4897
শিল্প	-11.4897
▁प्राप्ति	-11.4897
▁অব্যাহত	-11.4898
▁சென்னையில்	-11.4899
▁Delhi	-11.4899
▁ஜெர்மனி	-11.49
▁பந்து	-11.49
▁নারায়ণ	-11.4901
▁యె	-11.4902
▁वजन	-11.4903
যান	-11.4904
ern	-11.4904
▁तृतीय	-11.4905
पक	-11.4905
বিহীন	-11.4906
▁উইকিপিডিয়া	-11.4906
কালের	-11.4906
भारतीय	-11.4906
▁কামাল	-11.4907
CO	-11.4907
▁এরফলে	-11.4907
▁నివాసగృహాలు	-11.4907
▁শক্ত	-11.4907
▁এড	-11.4908
▁अरुण	-11.4908
गंगा	-11.4908
পথ	-11.491
▁முதற்	-11.4911
▁কমলা	-11.4911
▁பிரச்சினை	-11.4913
▁హో	-11.4914
▁বোঝানো	-11.4915
స్వ	-11.4915
▁मजबूत	-11.4916
▁தஞ்சாவூர்	-11.4916
IS	-11.4916
▁পূর্ববর্তী	-11.4917
भेद	-11.4918
वारी	-11.4919
▁उचित	-11.4919
జ్ఞాన	-11.492
ித்து	-11.492
[...]
